#include "magic_wand_model_data.h"

// We need to keep the data array aligned on some architectures.
#ifdef __has_attribute
#define HAVE_ATTRIBUTE(x) __has_attribute(x)
#else
#define HAVE_ATTRIBUTE(x) 0
#endif
#if HAVE_ATTRIBUTE(aligned) || (defined(__GNUC__) && !defined(__clang__))
#define DATA_ALIGN_ATTRIBUTE __attribute__((aligned(4)))
#else
#define DATA_ALIGN_ATTRIBUTE
#endif

const unsigned char g_magic_wand_model_data[] DATA_ALIGN_ATTRIBUTE = {
  // Paste the data of the char array in `src/model.cc` here
  0x1c, 0x00, 0x00, 0x00, 0x54, 0x46, 0x4c, 0x33, 0x14, 0x00, 0x20, 0x00,
  0x04, 0x00, 0x08, 0x00, 0x0c, 0x00, 0x10, 0x00, 0x14, 0x00, 0x00, 0x00,
  0x18, 0x00, 0x1c, 0x00, 0x14, 0x00, 0x00, 0x00, 0x03, 0x00, 0x00, 0x00,
  0x18, 0x00, 0x00, 0x00, 0x2c, 0x00, 0x00, 0x00, 0xd8, 0x00, 0x00, 0x00,
  0x2c, 0x00, 0x00, 0x00, 0x80, 0x00, 0x00, 0x00, 0x78, 0x00, 0x00, 0x00,
  0x05, 0x00, 0x00, 0x00, 0x28, 0x07, 0x00, 0x00, 0x44, 0x06, 0x00, 0x00,
  0xbc, 0x03, 0x00, 0x00, 0xf8, 0x02, 0x00, 0x00, 0xac, 0x01, 0x00, 0x00,
  0x01, 0x00, 0x00, 0x00, 0xd0, 0x00, 0x00, 0x00, 0x14, 0x00, 0x00, 0x00,
  0xdc, 0x32, 0x00, 0x00, 0xd8, 0x32, 0x00, 0x00, 0xd0, 0x31, 0x00, 0x00,
  0x1c, 0x31, 0x00, 0x00, 0x74, 0x30, 0x00, 0x00, 0xfc, 0x2f, 0x00, 0x00,
  0x90, 0x2f, 0x00, 0x00, 0x40, 0x13, 0x00, 0x00, 0xec, 0x11, 0x00, 0x00,
  0x10, 0x10, 0x00, 0x00, 0xb4, 0x07, 0x00, 0x00, 0xb0, 0x32, 0x00, 0x00,
  0xac, 0x32, 0x00, 0x00, 0xa8, 0x32, 0x00, 0x00, 0xa4, 0x32, 0x00, 0x00,
  0xa0, 0x32, 0x00, 0x00, 0x9c, 0x32, 0x00, 0x00, 0x98, 0x32, 0x00, 0x00,
  0x94, 0x32, 0x00, 0x00, 0x3c, 0x00, 0x00, 0x00, 0x00, 0x00, 0x00, 0x00,
  0x01, 0x00, 0x00, 0x00, 0x0c, 0x00, 0x00, 0x00, 0x08, 0x00, 0x0c, 0x00,
  0x04, 0x00, 0x08, 0x00, 0x08, 0x00, 0x00, 0x00, 0x08, 0x00, 0x00, 0x00,
  0x13, 0x00, 0x00, 0x00, 0x13, 0x00, 0x00, 0x00, 0x6d, 0x69, 0x6e, 0x5f,
  0x72, 0x75, 0x6e, 0x74, 0x69, 0x6d, 0x65, 0x5f, 0x76, 0x65, 0x72, 0x73,
  0x69, 0x6f, 0x6e, 0x00, 0xb6, 0xce, 0xff, 0xff, 0x04, 0x00, 0x00, 0x00,
  0x10, 0x00, 0x00, 0x00, 0x31, 0x2e, 0x35, 0x2e, 0x30, 0x00, 0x00, 0x00,
  0x00, 0x00, 0x00, 0x00, 0x00, 0x00, 0x00, 0x00, 0x0f, 0x00, 0x00, 0x00,
  0x4d, 0x4c, 0x49, 0x52, 0x20, 0x43, 0x6f, 0x6e, 0x76, 0x65, 0x72, 0x74,
  0x65, 0x64, 0x2e, 0x00, 0x00, 0x00, 0x0e, 0x00, 0x18, 0x00, 0x04, 0x00,
  0x08, 0x00, 0x0c, 0x00, 0x10, 0x00, 0x14, 0x00, 0x0e, 0x00, 0x00, 0x00,
  0x14, 0x00, 0x00, 0x00, 0x5c, 0x00, 0x00, 0x00, 0x60, 0x00, 0x00, 0x00,
  0x64, 0x00, 0x00, 0x00, 0x84, 0x00, 0x00, 0x00, 0x12, 0x00, 0x00, 0x00,
  0x9c, 0x31, 0x00, 0x00, 0x2c, 0x31, 0x00, 0x00, 0x88, 0x30, 0x00, 0x00,
  0xe0, 0x2f, 0x00, 0x00, 0x38, 0x2f, 0x00, 0x00, 0xd4, 0x2e, 0x00, 0x00,
  0x6c, 0x2e, 0x00, 0x00, 0x18, 0x12, 0x00, 0x00, 0xbc, 0x10, 0x00, 0x00,
  0xe0, 0x0e, 0x00, 0x00, 0x0c, 0x06, 0x00, 0x00, 0x28, 0x05, 0x00, 0x00,
  0xe8, 0x03, 0x00, 0x00, 0x3c, 0x03, 0x00, 0x00, 0x98, 0x02, 0x00, 0x00,
  0xd4, 0x01, 0x00, 0x00, 0x10, 0x01, 0x00, 0x00, 0x84, 0x00, 0x00, 0x00,
  0x01, 0x00, 0x00, 0x00, 0x00, 0x00, 0x00, 0x00, 0x01, 0x00, 0x00, 0x00,
  0x11, 0x00, 0x00, 0x00, 0x08, 0x00, 0x00, 0x00, 0x74, 0x05, 0x00, 0x00,
  0x94, 0x04, 0x00, 0x00, 0x78, 0x03, 0x00, 0x00, 0xbc, 0x02, 0x00, 0x00,
  0x30, 0x02, 0x00, 0x00, 0x50, 0x01, 0x00, 0x00, 0xa8, 0x00, 0x00, 0x00,
  0x10, 0x00, 0x00, 0x00, 0x04, 0x00, 0x00, 0x00, 0x6d, 0x61, 0x69, 0x6e,
  0x00, 0x00, 0x00, 0x00, 0x7a, 0xff, 0xff, 0xff, 0x00, 0x00, 0x00, 0x09,
  0x04, 0x00, 0x00, 0x00, 0x1c, 0x00, 0x00, 0x00, 0x10, 0x00, 0x00, 0x00,
  0x04, 0x00, 0x00, 0x00, 0xb2, 0xcf, 0xff, 0xff, 0x00, 0x00, 0x80, 0x3f,
  0x01, 0x00, 0x00, 0x00, 0x11, 0x00, 0x00, 0x00, 0x01, 0x00, 0x00, 0x00,
  0x10, 0x00, 0x00, 0x00, 0xa0, 0xfa, 0xff, 0xff, 0x19, 0x00, 0x00, 0x00,
  0x00, 0x00, 0x00, 0x19, 0x01, 0x00, 0x00, 0x00, 0x40, 0xcf, 0xff, 0xff,
  0x14, 0x00, 0x00, 0x00, 0x12, 0x00, 0x00, 0x00, 0x18, 0x00, 0x00, 0x00,
  0x30, 0x00, 0x00, 0x00, 0x20, 0x00, 0x00, 0x00, 0x02, 0x00, 0x00, 0x00,
  0x01, 0x00, 0x00, 0x00, 0x04, 0x00, 0x00, 0x00, 0x08, 0x00, 0x00, 0x00,
  0x49, 0x64, 0x65, 0x6e, 0x74, 0x69, 0x74, 0x79, 0x00, 0x00, 0x00, 0x00,
  0x02, 0x00, 0x00, 0x00, 0xff, 0xff, 0xff, 0xff, 0x04, 0x00, 0x00, 0x00,
  0x24, 0xd0, 0xff, 0xff, 0x00, 0x00, 0x0e, 0x00, 0x18, 0x00, 0x08, 0x00,
  0x0c, 0x00, 0x10, 0x00, 0x07, 0x00, 0x14, 0x00, 0x0e, 0x00, 0x00, 0x00,
  0x00, 0x00, 0x00, 0x08, 0x03, 0x00, 0x00, 0x00, 0x18, 0x00, 0x00, 0x00,
  0x0c, 0x00, 0x00, 0x00, 0x04, 0x00, 0x00, 0x00, 0x40, 0xcf, 0xff, 0xff,
  0x01, 0x00, 0x00, 0x00, 0x10, 0x00, 0x00, 0x00, 0x03, 0x00, 0x00, 0x00,
  0x0f, 0x00, 0x00, 0x00, 0x07, 0x00, 0x00, 0x00, 0x04, 0x00, 0x00, 0x00,
  0xc8, 0xcf, 0xff, 0xff, 0x14, 0x00, 0x00, 0x00, 0x11, 0x00, 0x00, 0x00,
  0x18, 0x00, 0x00, 0x00, 0x5c, 0x00, 0x00, 0x00, 0x4c, 0x00, 0x00, 0x00,
  0x02, 0x00, 0x00, 0x00, 0x01, 0x00, 0x00, 0x00, 0x04, 0x00, 0x00, 0x00,
  0x34, 0x00, 0x00, 0x00, 0x73, 0x65, 0x71, 0x75, 0x65, 0x6e, 0x74, 0x69,
  0x61, 0x6c, 0x2f, 0x64, 0x65, 0x6e, 0x73, 0x65, 0x5f, 0x31, 0x2f, 0x4d,
  0x61, 0x74, 0x4d, 0x75, 0x6c, 0x3b, 0x73, 0x65, 0x71, 0x75, 0x65, 0x6e,
  0x74, 0x69, 0x61, 0x6c, 0x2f, 0x64, 0x65, 0x6e, 0x73, 0x65, 0x5f, 0x31,
  0x2f, 0x42, 0x69, 0x61, 0x73, 0x41, 0x64, 0x64, 0x00, 0x00, 0x00, 0x00,
  0x02, 0x00, 0x00, 0x00, 0xff, 0xff, 0xff, 0xff, 0x04, 0x00, 0x00, 0x00,
  0xc8, 0xcf, 0xff, 0xff, 0xda, 0xfc, 0xff, 0xff, 0x00, 0x00, 0x00, 0x08,
  0x03, 0x00, 0x00, 0x00, 0x24, 0x00, 0x00, 0x00, 0x18, 0x00, 0x00, 0x00,
  0x0c, 0x00, 0x00, 0x00, 0x00, 0x00, 0x06, 0x00, 0x08, 0x00, 0x07, 0x00,
  0x06, 0x00, 0x00, 0x00, 0x00, 0x00, 0x00, 0x01, 0x01, 0x00, 0x00, 0x00,
  0x0f, 0x00, 0x00, 0x00, 0x03, 0x00, 0x00, 0x00, 0x0e, 0x00, 0x00, 0x00,
  0x06, 0x00, 0x00, 0x00, 0x03, 0x00, 0x00, 0x00, 0xe8, 0xfb, 0xff, 0xff,
  0x09, 0x00, 0x00, 0x00, 0x00, 0x00, 0x00, 0x09, 0x01, 0x00, 0x00, 0x00,
  0x88, 0xd0, 0xff, 0xff, 0x14, 0x00, 0x00, 0x00, 0x10, 0x00, 0x00, 0x00,
  0x18, 0x00, 0x00, 0x00, 0x6c, 0x00, 0x00, 0x00, 0x5c, 0x00, 0x00, 0x00,
  0x02, 0x00, 0x00, 0x00, 0x01, 0x00, 0x00, 0x00, 0x10, 0x00, 0x00, 0x00,
  0x46, 0x00, 0x00, 0x00, 0x73, 0x65, 0x71, 0x75, 0x65, 0x6e, 0x74, 0x69,
  0x61, 0x6c, 0x2f, 0x64, 0x65, 0x6e, 0x73, 0x65, 0x2f, 0x4d, 0x61, 0x74,
  0x4d, 0x75, 0x6c, 0x3b, 0x73, 0x65, 0x71, 0x75, 0x65, 0x6e, 0x74, 0x69,
  0x61, 0x6c, 0x2f, 0x64, 0x65, 0x6e, 0x73, 0x65, 0x2f, 0x52, 0x65, 0x6c,
  0x75, 0x3b, 0x73, 0x65, 0x71, 0x75, 0x65, 0x6e, 0x74, 0x69, 0x61, 0x6c,
  0x2f, 0x64, 0x65, 0x6e, 0x73, 0x65, 0x2f, 0x42, 0x69, 0x61, 0x73, 0x41,
  0x64, 0x64, 0x00, 0x00, 0x02, 0x00, 0x00, 0x00, 0xff, 0xff, 0xff, 0xff,
  0x10, 0x00, 0x00, 0x00, 0xa8, 0xd1, 0xff, 0xff, 0x00, 0x00, 0x0a, 0x00,
  0x10, 0x00, 0x04, 0x00, 0x08, 0x00, 0x0c, 0x00, 0x0a, 0x00, 0x00, 0x00,
  0x02, 0x00, 0x00, 0x00, 0x10, 0x00, 0x00, 0x00, 0x04, 0x00, 0x00, 0x00,
  0x01, 0x00, 0x00, 0x00, 0x0e, 0x00, 0x00, 0x00, 0x02, 0x00, 0x00, 0x00,
  0x0d, 0x00, 0x00, 0x00, 0x05, 0x00, 0x00, 0x00, 0xa8, 0xfc, 0xff, 0xff,
  0x16, 0x00, 0x00, 0x00, 0x00, 0x00, 0x00, 0x16, 0x01, 0x00, 0x00, 0x00,
  0x48, 0xd1, 0xff, 0xff, 0x14, 0x00, 0x00, 0x00, 0x0f, 0x00, 0x00, 0x00,
  0x18, 0x00, 0x00, 0x00, 0x40, 0x00, 0x00, 0x00, 0x30, 0x00, 0x00, 0x00,
  0x02, 0x00, 0x00, 0x00, 0x01, 0x00, 0x00, 0x00, 0x70, 0x00, 0x00, 0x00,
  0x1a, 0x00, 0x00, 0x00, 0x73, 0x65, 0x71, 0x75, 0x65, 0x6e, 0x74, 0x69,
  0x61, 0x6c, 0x2f, 0x66, 0x6c, 0x61, 0x74, 0x74, 0x65, 0x6e, 0x2f, 0x52,
  0x65, 0x73, 0x68, 0x61, 0x70, 0x65, 0x00, 0x00, 0x02, 0x00, 0x00, 0x00,
  0xff, 0xff, 0xff, 0xff, 0x70, 0x00, 0x00, 0x00, 0x2c, 0xd1, 0xff, 0xff,
  0x3e, 0xfe, 0xff, 0xff, 0x00, 0x00, 0x00, 0x05, 0x01, 0x00, 0x00, 0x00,
  0x38, 0x00, 0x00, 0x00, 0x2c, 0x00, 0x00, 0x00, 0x14, 0x00, 0x00, 0x00,
  0x00, 0x00, 0x0e, 0x00, 0x14, 0x00, 0x00, 0x00, 0x10, 0x00, 0x0c, 0x00,
  0x08, 0x00, 0x04, 0x00, 0x0e, 0x00, 0x00, 0x00, 0x03, 0x00, 0x00, 0x00,
  0x01, 0x00, 0x00, 0x00, 0x03, 0x00, 0x00, 0x00, 0x01, 0x00, 0x00, 0x00,
  0x01, 0x00, 0x00, 0x00, 0x0d, 0x00, 0x00, 0x00, 0x01, 0x00, 0x00, 0x00,
  0x0c, 0x00, 0x00, 0x00, 0xe8, 0xd1, 0xff, 0xff, 0x14, 0x00, 0x00, 0x00,
  0x0e, 0x00, 0x00, 0x00, 0x20, 0x00, 0x00, 0x00, 0x58, 0x00, 0x00, 0x00,
  0x40, 0x00, 0x00, 0x00, 0x04, 0x00, 0x00, 0x00, 0x01, 0x00, 0x00, 0x00,
  0x07, 0x00, 0x00, 0x00, 0x01, 0x00, 0x00, 0x00, 0x10, 0x00, 0x00, 0x00,
  0x22, 0x00, 0x00, 0x00, 0x73, 0x65, 0x71, 0x75, 0x65, 0x6e, 0x74, 0x69,
  0x61, 0x6c, 0x2f, 0x6d, 0x61, 0x78, 0x5f, 0x70, 0x6f, 0x6f, 0x6c, 0x69,
  0x6e, 0x67, 0x32, 0x64, 0x5f, 0x31, 0x2f, 0x4d, 0x61, 0x78, 0x50, 0x6f,
  0x6f, 0x6c, 0x00, 0x00, 0x04, 0x00, 0x00, 0x00, 0xff, 0xff, 0xff, 0xff,
  0x07, 0x00, 0x00, 0x00, 0x01, 0x00, 0x00, 0x00, 0x10, 0x00, 0x00, 0x00,
  0xe4, 0xd1, 0xff, 0xff, 0x1a, 0xfe, 0xff, 0xff, 0x00, 0x00, 0x00, 0x01,
  0x24, 0x00, 0x00, 0x00, 0x18, 0x00, 0x00, 0x00, 0x04, 0x00, 0x00, 0x00,
  0x0c, 0xfe, 0xff, 0xff, 0x01, 0x00, 0x00, 0x00, 0x01, 0x00, 0x00, 0x00,
  0x00, 0x00, 0x00, 0x01, 0x01, 0x00, 0x00, 0x00, 0x0c, 0x00, 0x00, 0x00,
  0x03, 0x00, 0x00, 0x00, 0x0b, 0x00, 0x00, 0x00, 0x09, 0x00, 0x00, 0x00,
  0x02, 0x00, 0x00, 0x00, 0x90, 0xd2, 0xff, 0xff, 0x14, 0x00, 0x00, 0x00,
  0x0d, 0x00, 0x00, 0x00, 0x20, 0x00, 0x00, 0x00, 0xb8, 0x00, 0x00, 0x00,
  0xa0, 0x00, 0x00, 0x00, 0x04, 0x00, 0x00, 0x00, 0x01, 0x00, 0x00, 0x00,
  0x15, 0x00, 0x00, 0x00, 0x01, 0x00, 0x00, 0x00, 0x10, 0x00, 0x00, 0x00,
  0x83, 0x00, 0x00, 0x00, 0x73, 0x65, 0x71, 0x75, 0x65, 0x6e, 0x74, 0x69,
  0x61, 0x6c, 0x2f, 0x63, 0x6f, 0x6e, 0x76, 0x32, 0x64, 0x5f, 0x31, 0x2f,
  0x52, 0x65, 0x6c, 0x75, 0x3b, 0x73, 0x65, 0x71, 0x75, 0x65, 0x6e, 0x74,
  0x69, 0x61, 0x6c, 0x2f, 0x63, 0x6f, 0x6e, 0x76, 0x32, 0x64, 0x5f, 0x31,
  0x2f, 0x42, 0x69, 0x61, 0x73, 0x41, 0x64, 0x64, 0x3b, 0x73, 0x65, 0x71,
  0x75, 0x65, 0x6e, 0x74, 0x69, 0x61, 0x6c, 0x2f, 0x63, 0x6f, 0x6e, 0x76,
  0x32, 0x64, 0x5f, 0x31, 0x2f, 0x43, 0x6f, 0x6e, 0x76, 0x32, 0x44, 0x3b,
  0x73, 0x65, 0x71, 0x75, 0x65, 0x6e, 0x74, 0x69, 0x61, 0x6c, 0x2f, 0x63,
  0x6f, 0x6e, 0x76, 0x32, 0x64, 0x5f, 0x31, 0x2f, 0x42, 0x69, 0x61, 0x73,
  0x41, 0x64, 0x64, 0x2f, 0x52, 0x65, 0x61, 0x64, 0x56, 0x61, 0x72, 0x69,
  0x61, 0x62, 0x6c, 0x65, 0x4f, 0x70, 0x2f, 0x72, 0x65, 0x73, 0x6f, 0x75,
  0x72, 0x63, 0x65, 0x00, 0x04, 0x00, 0x00, 0x00, 0xff, 0xff, 0xff, 0xff,
  0x15, 0x00, 0x00, 0x00, 0x01, 0x00, 0x00, 0x00, 0x10, 0x00, 0x00, 0x00,
  0xfc, 0xd3, 0xff, 0xff, 0x00, 0x00, 0x0e, 0x00, 0x1a, 0x00, 0x08, 0x00,
  0x0c, 0x00, 0x10, 0x00, 0x07, 0x00, 0x14, 0x00, 0x0e, 0x00, 0x00, 0x00,
  0x00, 0x00, 0x00, 0x05, 0x01, 0x00, 0x00, 0x00, 0x3c, 0x00, 0x00, 0x00,
  0x30, 0x00, 0x00, 0x00, 0x14, 0x00, 0x00, 0x00, 0x00, 0x00, 0x0e, 0x00,
  0x18, 0x00, 0x17, 0x00, 0x10, 0x00, 0x0c, 0x00, 0x08, 0x00, 0x04, 0x00,
  0x0e, 0x00, 0x00, 0x00, 0x03, 0x00, 0x00, 0x00, 0x03, 0x00, 0x00, 0x00,
  0x03, 0x00, 0x00, 0x00, 0x03, 0x00, 0x00, 0x00, 0x00, 0x00, 0x00, 0x01,
  0x01, 0x00, 0x00, 0x00, 0x0b, 0x00, 0x00, 0x00, 0x01, 0x00, 0x00, 0x00,
  0x0a, 0x00, 0x00, 0x00, 0x2c, 0xff, 0xff, 0xff, 0x11, 0x00, 0x00, 0x00,
  0x00, 0x00, 0x00, 0x11, 0x01, 0x00, 0x00, 0x00, 0xcc, 0xd3, 0xff, 0xff,
  0x14, 0x00, 0x00, 0x00, 0x0c, 0x00, 0x00, 0x00, 0x20, 0x00, 0x00, 0x00,
  0x58, 0x00, 0x00, 0x00, 0x40, 0x00, 0x00, 0x00, 0x04, 0x00, 0x00, 0x00,
  0x01, 0x00, 0x00, 0x00, 0x15, 0x00, 0x00, 0x00, 0x01, 0x00, 0x00, 0x00,
  0x08, 0x00, 0x00, 0x00, 0x20, 0x00, 0x00, 0x00, 0x73, 0x65, 0x71, 0x75,
  0x65, 0x6e, 0x74, 0x69, 0x61, 0x6c, 0x2f, 0x6d, 0x61, 0x78, 0x5f, 0x70,
  0x6f, 0x6f, 0x6c, 0x69, 0x6e, 0x67, 0x32, 0x64, 0x2f, 0x4d, 0x61, 0x78,
  0x50, 0x6f, 0x6f, 0x6c, 0x00, 0x00, 0x00, 0x00, 0x04, 0x00, 0x00, 0x00,
  0xff, 0xff, 0xff, 0xff, 0x15, 0x00, 0x00, 0x00, 0x01, 0x00, 0x00, 0x00,
  0x08, 0x00, 0x00, 0x00, 0xd8, 0xd4, 0xff, 0xff, 0x00, 0x00, 0x0e, 0x00,
  0x14, 0x00, 0x00, 0x00, 0x08, 0x00, 0x0c, 0x00, 0x07, 0x00, 0x10, 0x00,
  0x0e, 0x00, 0x00, 0x00, 0x00, 0x00, 0x00, 0x01, 0x30, 0x00, 0x00, 0x00,
  0x24, 0x00, 0x00, 0x00, 0x10, 0x00, 0x00, 0x00, 0x0c, 0x00, 0x10, 0x00,
  0x00, 0x00, 0x04, 0x00, 0x08, 0x00, 0x0f, 0x00, 0x0c, 0x00, 0x00, 0x00,
  0x01, 0x00, 0x00, 0x00, 0x01, 0x00, 0x00, 0x00, 0x00, 0x00, 0x00, 0x01,
  0x01, 0x00, 0x00, 0x00, 0x0a, 0x00, 0x00, 0x00, 0x03, 0x00, 0x00, 0x00,
  0x00, 0x00, 0x00, 0x00, 0x08, 0x00, 0x00, 0x00, 0x01, 0x00, 0x00, 0x00,
  0x0c, 0x00, 0x10, 0x00, 0x0b, 0x00, 0x00, 0x00, 0x0c, 0x00, 0x04, 0x00,
  0x0c, 0x00, 0x00, 0x00, 0x03, 0x00, 0x00, 0x00, 0x00, 0x00, 0x00, 0x03,
  0x01, 0x00, 0x00, 0x00, 0xac, 0xd4, 0xff, 0xff, 0x14, 0x00, 0x00, 0x00,
  0x0b, 0x00, 0x00, 0x00, 0x20, 0x00, 0x00, 0x00, 0xb0, 0x00, 0x00, 0x00,
  0x98, 0x00, 0x00, 0x00, 0x04, 0x00, 0x00, 0x00, 0x01, 0x00, 0x00, 0x00,
  0x40, 0x00, 0x00, 0x00, 0x03, 0x00, 0x00, 0x00, 0x08, 0x00, 0x00, 0x00,
  0x7b, 0x00, 0x00, 0x00, 0x73, 0x65, 0x71, 0x75, 0x65, 0x6e, 0x74, 0x69,
  0x61, 0x6c, 0x2f, 0x63, 0x6f, 0x6e, 0x76, 0x32, 0x64, 0x2f, 0x52, 0x65,
  0x6c, 0x75, 0x3b, 0x73, 0x65, 0x71, 0x75, 0x65, 0x6e, 0x74, 0x69, 0x61,
  0x6c, 0x2f, 0x63, 0x6f, 0x6e, 0x76, 0x32, 0x64, 0x2f, 0x42, 0x69, 0x61,
  0x73, 0x41, 0x64, 0x64, 0x3b, 0x73, 0x65, 0x71, 0x75, 0x65, 0x6e, 0x74,
  0x69, 0x61, 0x6c, 0x2f, 0x63, 0x6f, 0x6e, 0x76, 0x32, 0x64, 0x2f, 0x43,
  0x6f, 0x6e, 0x76, 0x32, 0x44, 0x3b, 0x73, 0x65, 0x71, 0x75, 0x65, 0x6e,
  0x74, 0x69, 0x61, 0x6c, 0x2f, 0x63, 0x6f, 0x6e, 0x76, 0x32, 0x64, 0x2f,
  0x42, 0x69, 0x61, 0x73, 0x41, 0x64, 0x64, 0x2f, 0x52, 0x65, 0x61, 0x64,
  0x56, 0x61, 0x72, 0x69, 0x61, 0x62, 0x6c, 0x65, 0x4f, 0x70, 0x2f, 0x72,
  0x65, 0x73, 0x6f, 0x75, 0x72, 0x63, 0x65, 0x00, 0x04, 0x00, 0x00, 0x00,
  0xff, 0xff, 0xff, 0xff, 0x40, 0x00, 0x00, 0x00, 0x03, 0x00, 0x00, 0x00,
  0x08, 0x00, 0x00, 0x00, 0x00, 0xd5, 0xff, 0xff, 0x0a, 0xd6, 0xff, 0xff,
  0x04, 0x00, 0x00, 0x00, 0x00, 0x08, 0x00, 0x00, 0xe8, 0x70, 0xb7, 0xbd,
  0x13, 0x7a, 0x24, 0xbf, 0xeb, 0x1e, 0x29, 0xbf, 0xb0, 0x4e, 0xf9, 0x3b,
  0x1c, 0x0c, 0xd7, 0xbd, 0xb2, 0xf3, 0x97, 0xbd, 0x08, 0x3e, 0x13, 0xbe,
  0xf0, 0x91, 0xab, 0x3d, 0xf3, 0xf1, 0x03, 0x3e, 0x08, 0x5c, 0xfe, 0xbe,
  0x87, 0x79, 0x12, 0xbf, 0x65, 0xfd, 0xd8, 0xbe, 0x4f, 0x68, 0x18, 0x3d,
  0x4f, 0x67, 0x2d, 0x3c, 0x77, 0xec, 0xd6, 0xbd, 0xd0, 0x62, 0xc8, 0xbc,
  0xdd, 0x0d, 0x36, 0x3e, 0x6c, 0x4b, 0x69, 0xbe, 0x1d, 0x25, 0x78, 0xbe,
  0x80, 0x14, 0xcf, 0xbd, 0x64, 0x87, 0x9d, 0xba, 0x99, 0x93, 0x8f, 0xbd,
  0xcb, 0x0a, 0x14, 0x3d, 0xf1, 0xb9, 0xa8, 0x3c, 0x37, 0xe1, 0x3d, 0x3c,
  0x58, 0x40, 0xd9, 0x3c, 0x13, 0x0f, 0xbc, 0x3c, 0xee, 0xfd, 0x61, 0x3e,
  0x86, 0xd5, 0x6a, 0x3d, 0xea, 0xa1, 0x86, 0x3e, 0x0d, 0xff, 0x98, 0x3d,
  0x88, 0x46, 0x5e, 0x3e, 0xc8, 0x60, 0xac, 0xbd, 0x71, 0xb4, 0x56, 0xbe,
  0x9e, 0x64, 0xf2, 0xbd, 0xfe, 0xb6, 0x34, 0xbe, 0x1f, 0xd2, 0xcd, 0xbc,
  0x36, 0xe2, 0xd6, 0x3d, 0x9f, 0x9c, 0xe7, 0x3d, 0x2e, 0x52, 0x26, 0xbc,
  0x8b, 0xa9, 0x82, 0xbd, 0xea, 0x33, 0x04, 0xbd, 0x2f, 0x71, 0x9f, 0xbc,
  0x75, 0xe8, 0x69, 0xbd, 0x0b, 0x3c, 0x48, 0xbd, 0x23, 0x9c, 0xb0, 0x3b,
  0x08, 0x62, 0xa9, 0x3e, 0x05, 0xf6, 0xd4, 0xbc, 0xa7, 0x21, 0xa4, 0xbd,
  0x88, 0xcb, 0x2b, 0x3d, 0xc6, 0xa8, 0x80, 0xbd, 0x4c, 0xed, 0x4c, 0xbe,
  0x8a, 0x14, 0x17, 0xbd, 0xf6, 0x33, 0x3f, 0xbe, 0xf0, 0x30, 0xd0, 0x3c,
  0xe8, 0xb5, 0xde, 0xbd, 0xf6, 0xdd, 0x01, 0xbe, 0x5d, 0x35, 0xa2, 0x3d,
  0xb1, 0xc9, 0xd7, 0x3e, 0x8b, 0x7f, 0x8b, 0xbc, 0xa0, 0xda, 0x01, 0x3e,
  0x00, 0xf9, 0x6d, 0xbe, 0x84, 0xd8, 0xbc, 0x3d, 0x39, 0x64, 0x9c, 0xbd,
  0xaa, 0xfb, 0x24, 0x3e, 0xab, 0x84, 0x20, 0xbd, 0x53, 0x15, 0x97, 0xbd,
  0xbe, 0x9c, 0x31, 0xbe, 0xa9, 0xc3, 0xdf, 0x3e, 0x51, 0x01, 0xfe, 0x3e,
  0xa0, 0x6f, 0x15, 0x3e, 0x66, 0x56, 0xfb, 0xbc, 0x35, 0xe8, 0x2a, 0xbe,
  0x61, 0x26, 0x73, 0xbd, 0xdd, 0xf7, 0x75, 0xbd, 0xb9, 0xbc, 0xe0, 0xbd,
  0xc5, 0xf8, 0x06, 0x3e, 0x2b, 0x24, 0x76, 0xbe, 0x65, 0xa3, 0xac, 0xbd,
  0x07, 0xbf, 0x86, 0x3e, 0xe6, 0xf9, 0xe4, 0xbd, 0x69, 0xe0, 0x8d, 0x3d,
  0x7e, 0x2b, 0x04, 0x3d, 0xf2, 0xf2, 0x21, 0xbd, 0x5b, 0xa4, 0xe4, 0xbc,
  0xbe, 0x5a, 0xea, 0xbd, 0x21, 0xb9, 0xff, 0xbd, 0xe1, 0x60, 0x3b, 0xbe,
  0xcc, 0x06, 0x31, 0xbe, 0x6e, 0xc7, 0xc4, 0x3d, 0x55, 0x39, 0xb6, 0xba,
  0x8e, 0xb5, 0x1f, 0xbd, 0x3f, 0x7a, 0x71, 0xbe, 0xbe, 0xe6, 0xac, 0xbe,
  0x83, 0x3b, 0x28, 0xbe, 0x02, 0x7b, 0x68, 0xbd, 0x2a, 0x66, 0x3f, 0xbf,
  0x19, 0x32, 0x82, 0x3e, 0x87, 0x24, 0xf8, 0x3d, 0xfe, 0x12, 0xcc, 0xbe,
  0x63, 0x89, 0x7c, 0xbc, 0x1a, 0x29, 0x75, 0xbe, 0x51, 0x97, 0xb3, 0x3c,
  0x1c, 0x3c, 0x5b, 0xbe, 0x42, 0xbc, 0x3d, 0xbf, 0xcf, 0x9e, 0x3e, 0xbe,
  0x8e, 0xf1, 0xbc, 0xbd, 0x33, 0xb8, 0xbf, 0xbe, 0x42, 0xef, 0xad, 0x3e,
  0x52, 0x36, 0x50, 0x3e, 0x89, 0x3f, 0x34, 0x3e, 0xbb, 0x98, 0xfb, 0x3d,
  0x86, 0xc2, 0x80, 0xbf, 0x88, 0xc1, 0xb7, 0xbd, 0x52, 0x4a, 0x8f, 0x3d,
  0xdb, 0x7d, 0x04, 0xbf, 0x4d, 0x75, 0x85, 0x3d, 0xb7, 0x36, 0x1c, 0x3e,
  0x5a, 0x8c, 0xbf, 0xbd, 0x87, 0xea, 0xa6, 0x3e, 0xe5, 0x2c, 0x63, 0xbf,
  0xa2, 0x09, 0x32, 0xbe, 0xa4, 0xcd, 0x09, 0x3d, 0x9f, 0x63, 0x79, 0xbf,
  0x01, 0xe3, 0x95, 0xbe, 0x3b, 0x60, 0x5d, 0xbe, 0xc2, 0xd8, 0x8d, 0x3d,
  0xea, 0x80, 0xd0, 0xbd, 0x47, 0x05, 0x9f, 0xbe, 0x6f, 0x52, 0xf1, 0xbd,
  0xea, 0x3c, 0x6b, 0xbe, 0xb3, 0x33, 0xc4, 0x3b, 0x96, 0x98, 0x89, 0xbe,
  0x78, 0xbd, 0x2f, 0x3e, 0xfb, 0xe9, 0x01, 0x3e, 0x87, 0x0e, 0x99, 0xbb,
  0x02, 0x31, 0x21, 0xbe, 0x54, 0x9d, 0x61, 0xbe, 0x7d, 0x60, 0x3f, 0xbd,
  0x80, 0x93, 0x7b, 0x3d, 0x2e, 0x14, 0x3b, 0xbe, 0x6f, 0xd7, 0x6c, 0xbe,
  0x6e, 0x28, 0x9c, 0xbe, 0xcd, 0x74, 0x3b, 0x3e, 0x1d, 0x9c, 0x0b, 0xbd,
  0xdd, 0xbd, 0x43, 0xbe, 0x52, 0x56, 0x5f, 0xbd, 0x59, 0x3e, 0x0d, 0x3e,
  0xf9, 0x2c, 0x3f, 0x3e, 0x62, 0xfc, 0xd7, 0xbc, 0x1e, 0xa7, 0x37, 0x3c,
  0x9e, 0x89, 0x6a, 0xbe, 0xe8, 0xf2, 0x27, 0x3d, 0x5e, 0xb1, 0xfb, 0x3d,
  0x01, 0xb0, 0x62, 0xbd, 0xd4, 0x4d, 0x53, 0xbe, 0xb3, 0x45, 0x7a, 0xbe,
  0xdc, 0x43, 0x94, 0x3c, 0x2b, 0xe6, 0x92, 0xbe, 0xa0, 0x9a, 0x10, 0x3e,
  0x08, 0x42, 0xa4, 0xbe, 0x66, 0x55, 0xe3, 0x3c, 0xaa, 0xa9, 0x65, 0xbd,
  0x69, 0x92, 0x35, 0x3c, 0x13, 0x40, 0x6a, 0xbe, 0x1d, 0x9a, 0x4b, 0xbf,
  0x98, 0x70, 0x35, 0xbf, 0x5c, 0xb2, 0x48, 0x3e, 0xe0, 0x2d, 0xae, 0xbb,
  0xcf, 0x4d, 0x6a, 0x3c, 0xc2, 0x0c, 0xa1, 0xbd, 0xfd, 0x2a, 0x88, 0x3e,
  0x78, 0x8e, 0xae, 0x3e, 0x0c, 0x4a, 0x9b, 0x3d, 0x67, 0x2c, 0xda, 0xbd,
  0x92, 0xf4, 0x61, 0x3d, 0x04, 0x3c, 0x72, 0x3b, 0xea, 0x73, 0x5f, 0xbc,
  0xef, 0x7a, 0x1e, 0xbe, 0x95, 0x9a, 0x75, 0xbd, 0xf9, 0x1f, 0xd8, 0xbb,
  0x72, 0x06, 0xca, 0x3d, 0x9b, 0x80, 0x1e, 0x3e, 0xcc, 0x7c, 0x10, 0xbd,
  0x61, 0xfb, 0xff, 0x3d, 0x2d, 0xf7, 0x3c, 0xbe, 0x2c, 0x67, 0x43, 0xbe,
  0xd5, 0x42, 0x2c, 0xbe, 0xf3, 0x89, 0xc3, 0xbd, 0xf5, 0x45, 0x84, 0x3e,
  0xdd, 0x4e, 0x06, 0x3e, 0x4d, 0x04, 0xed, 0xbd, 0xee, 0x9d, 0x45, 0x3e,
  0xe7, 0xad, 0xa0, 0xbd, 0x1a, 0x9d, 0x22, 0xbe, 0x02, 0xf6, 0xea, 0x3e,
  0x4a, 0x02, 0xcd, 0xbe, 0x96, 0xe6, 0xfc, 0x3d, 0xfe, 0xc2, 0x99, 0x3d,
  0xec, 0xb3, 0x0f, 0xbe, 0x91, 0x5e, 0xa0, 0xbd, 0x3e, 0xbe, 0xc2, 0x3d,
  0xdd, 0xeb, 0x1c, 0xbe, 0xd3, 0xff, 0x67, 0x3e, 0xfd, 0xbe, 0xb9, 0xbe,
  0x84, 0x57, 0xa8, 0xba, 0x4a, 0x16, 0x68, 0xbd, 0x30, 0x9c, 0xa5, 0xbe,
  0xa6, 0xa1, 0x44, 0x3e, 0xac, 0x59, 0x39, 0x3d, 0x5c, 0x81, 0x68, 0xbd,
  0x35, 0x25, 0xfd, 0x3e, 0x94, 0x9d, 0xab, 0xbe, 0xbd, 0x68, 0x01, 0x3d,
  0xf0, 0xc4, 0x88, 0xbb, 0xb9, 0x3f, 0xfd, 0xbd, 0x4c, 0xf4, 0x37, 0xbd,
  0x5c, 0xf9, 0x1e, 0xbd, 0x1f, 0x51, 0x71, 0x3c, 0x6c, 0x7b, 0x21, 0x3e,
  0xea, 0x67, 0xd6, 0xbe, 0xad, 0x85, 0x89, 0x3c, 0x96, 0x5c, 0xb4, 0x3c,
  0x45, 0x7e, 0x96, 0xbe, 0x3f, 0x07, 0x90, 0xbe, 0xe2, 0xc9, 0x71, 0xbe,
  0xd3, 0xe9, 0x41, 0xbe, 0x80, 0x75, 0xa5, 0xbe, 0x27, 0x5d, 0xb9, 0xbe,
  0x9b, 0x96, 0x74, 0xbe, 0x13, 0x77, 0x65, 0x3d, 0xc2, 0x8a, 0xda, 0xbe,
  0x16, 0x5f, 0x15, 0xbe, 0x08, 0x4a, 0x7e, 0xbe, 0xb2, 0x6a, 0xdd, 0x3c,
  0xc6, 0x35, 0x43, 0xbe, 0x39, 0x8d, 0x8d, 0xbc, 0x61, 0x37, 0x28, 0xbe,
  0x45, 0x74, 0xc9, 0x3d, 0xbe, 0x50, 0xa7, 0x3e, 0x90, 0x32, 0xac, 0xbd,
  0xc2, 0xfa, 0x2d, 0xbe, 0x7f, 0x39, 0x40, 0xbe, 0x59, 0x04, 0x05, 0x3e,
  0x30, 0x5d, 0x9b, 0xbd, 0x4d, 0x57, 0x1f, 0xbe, 0x63, 0x2c, 0xea, 0xbd,
  0xd7, 0x32, 0x6b, 0x3a, 0x1d, 0x4b, 0xb2, 0xb9, 0x51, 0xb5, 0x22, 0xbc,
  0xf4, 0xdd, 0xe8, 0xbd, 0x7f, 0xde, 0x03, 0x3e, 0x5c, 0x1b, 0xb2, 0x3d,
  0x3a, 0x7a, 0x5c, 0x3e, 0x28, 0xad, 0xc6, 0xbd, 0x25, 0xd6, 0x82, 0x3d,
  0x5d, 0x33, 0x99, 0x3c, 0x19, 0x4f, 0x63, 0xbe, 0xcc, 0x61, 0xbd, 0xbd,
  0x63, 0x76, 0x96, 0xbe, 0x2f, 0x91, 0xb5, 0xbe, 0x13, 0xf3, 0x00, 0xbe,
  0xd7, 0x35, 0xbd, 0xbd, 0x3e, 0xa3, 0x80, 0xbe, 0x75, 0xf6, 0xb8, 0x3d,
  0x24, 0x36, 0x0f, 0xbe, 0x3a, 0xb9, 0xe2, 0xbd, 0x4d, 0x8f, 0xad, 0xbe,
  0xe5, 0x45, 0x0f, 0xbe, 0x3b, 0x5a, 0xd0, 0xbd, 0xf2, 0x6f, 0x17, 0xbe,
  0x47, 0x8e, 0x7e, 0xbe, 0x59, 0x14, 0x38, 0xbd, 0xd3, 0xe6, 0xcd, 0x3d,
  0x4e, 0xe8, 0x80, 0xbc, 0x02, 0x13, 0xaa, 0xbd, 0x79, 0xa9, 0xd4, 0x3e,
  0x0d, 0xf2, 0x16, 0x3e, 0xba, 0x7e, 0xd2, 0xbd, 0x52, 0xbf, 0x96, 0x3e,
  0x82, 0xfd, 0x40, 0x3c, 0xc9, 0x0e, 0xfa, 0x3d, 0x18, 0x90, 0x8f, 0x3d,
  0x16, 0xf1, 0x98, 0x3d, 0x3d, 0x05, 0xe8, 0x3e, 0xc3, 0x35, 0x05, 0xbd,
  0x17, 0xec, 0xe4, 0xbd, 0xf5, 0x00, 0x87, 0x3e, 0xd9, 0x98, 0x81, 0xbe,
  0x9c, 0x5a, 0xa0, 0xbd, 0xb2, 0x0b, 0x5d, 0xbe, 0xd4, 0xbd, 0xa8, 0xbd,
  0xf9, 0x3d, 0x86, 0xbe, 0xeb, 0x9a, 0xc7, 0xbe, 0x67, 0x32, 0xb5, 0xbe,
  0x50, 0xf7, 0xf1, 0xbd, 0x19, 0x64, 0x09, 0x3d, 0xc4, 0xc1, 0x84, 0x3d,
  0x6f, 0x21, 0xc6, 0x3a, 0x96, 0x7a, 0xae, 0x3d, 0x6a, 0xb1, 0x2b, 0x3e,
  0x3a, 0x44, 0x10, 0xbe, 0x99, 0x00, 0x19, 0xbf, 0x08, 0xcb, 0x9a, 0x3d,
  0x28, 0xfc, 0x63, 0x3d, 0x1a, 0x58, 0xc9, 0x3c, 0x42, 0xa6, 0x5b, 0x3d,
  0xf6, 0x7c, 0x9a, 0x3c, 0x13, 0x73, 0x76, 0xbe, 0xbe, 0x3e, 0x86, 0xbe,
  0x90, 0xb6, 0x31, 0xbf, 0xbd, 0xa3, 0x6b, 0xbd, 0xaa, 0x8c, 0x3f, 0x3d,
  0x6e, 0xba, 0x75, 0x3d, 0xdc, 0x88, 0xf3, 0x3c, 0x39, 0x7d, 0x7a, 0x3d,
  0x6f, 0x17, 0x4c, 0xbe, 0xaa, 0xd8, 0xe1, 0xbd, 0xe4, 0x11, 0x07, 0xbf,
  0xbf, 0x40, 0xbf, 0x3d, 0x84, 0xcd, 0x63, 0xbe, 0x86, 0xda, 0x87, 0xbe,
  0x31, 0x91, 0x26, 0xbe, 0x71, 0x5e, 0x0f, 0xbf, 0x52, 0x24, 0x0e, 0xbd,
  0x8c, 0x49, 0x07, 0xbd, 0xf6, 0x01, 0x28, 0x3e, 0x49, 0x18, 0x87, 0xbe,
  0x08, 0x08, 0x8a, 0xbe, 0xa0, 0x93, 0x2e, 0xbe, 0x54, 0x81, 0xee, 0xbd,
  0xd2, 0xae, 0xfb, 0xbe, 0x3b, 0xf9, 0xc7, 0x3d, 0x2f, 0xdb, 0xc5, 0xbe,
  0xd8, 0x68, 0x3c, 0xbe, 0x4e, 0xb0, 0x88, 0xbe, 0xcd, 0x84, 0x5e, 0xbe,
  0x57, 0x62, 0xbf, 0x3c, 0xde, 0x15, 0x22, 0x3d, 0x01, 0xe2, 0x48, 0x3e,
  0x99, 0x82, 0x4b, 0x3e, 0x70, 0x47, 0xa3, 0xbe, 0xed, 0x7c, 0x35, 0xbf,
  0x7e, 0x0e, 0x14, 0x3e, 0xc2, 0x99, 0xb6, 0xbd, 0xaf, 0xce, 0x7b, 0x3e,
  0x51, 0x76, 0x44, 0x3e, 0xfa, 0x9c, 0x00, 0x3f, 0x65, 0x5f, 0x50, 0x3d,
  0x33, 0x74, 0xab, 0xbd, 0x40, 0xe5, 0x85, 0xbe, 0xe1, 0x44, 0x3d, 0x3e,
  0x21, 0x8c, 0xea, 0xbd, 0x57, 0x74, 0xa7, 0xbe, 0x88, 0x36, 0xf8, 0xbe,
  0x44, 0x24, 0x39, 0x3e, 0xf5, 0x33, 0xbf, 0x3d, 0xa8, 0x07, 0xe2, 0x3d,
  0xbd, 0xa1, 0x21, 0xbe, 0xc1, 0x96, 0x38, 0x3d, 0x44, 0x84, 0xb1, 0xbd,
  0x5e, 0x72, 0xbd, 0xbe, 0x95, 0x90, 0xc9, 0xbe, 0x46, 0x5b, 0x9c, 0x3e,
  0x8c, 0x0b, 0x24, 0x3e, 0x91, 0x5d, 0x73, 0x3d, 0x3f, 0x95, 0x0f, 0x3d,
  0xb3, 0xe9, 0x91, 0x3c, 0x0f, 0xb2, 0x00, 0xbe, 0x44, 0x77, 0xb8, 0xbe,
  0xc4, 0xa4, 0xcc, 0xbe, 0x3b, 0x5b, 0x10, 0x3f, 0x3e, 0x67, 0x0c, 0x3e,
  0xc4, 0x68, 0xd9, 0x3d, 0xef, 0xe6, 0x19, 0xbe, 0xd7, 0xfe, 0xe0, 0x3d,
  0xad, 0xa7, 0xd6, 0xbd, 0x14, 0xdc, 0xcd, 0xbe, 0x9a, 0x14, 0xd0, 0xbe,
  0xe0, 0xc9, 0x45, 0x3e, 0x5d, 0xcd, 0x8b, 0x3e, 0x6f, 0x32, 0x1d, 0x3e,
  0x0f, 0xe2, 0x3c, 0xbe, 0x76, 0x55, 0x94, 0x3c, 0x8e, 0x41, 0x69, 0xbd,
  0x5f, 0x82, 0xfd, 0x3d, 0x09, 0xd6, 0xb3, 0x3d, 0xfb, 0x83, 0x03, 0xbe,
  0xb8, 0x30, 0x69, 0x3e, 0xa0, 0xdd, 0x8b, 0x3e, 0x92, 0xe9, 0x52, 0x3e,
  0x10, 0x0f, 0x50, 0x3e, 0x44, 0x29, 0x72, 0xbe, 0xf0, 0xa0, 0x68, 0xbe,
  0x5a, 0x6b, 0xcd, 0x3d, 0xdc, 0x90, 0xb9, 0xbe, 0x36, 0x2e, 0x4b, 0xbe,
  0xe9, 0xe1, 0x31, 0xbe, 0x2a, 0x5a, 0x54, 0xbd, 0x74, 0x9d, 0x00, 0x3e,
  0x5b, 0x76, 0x60, 0xbe, 0xd1, 0x2f, 0x83, 0xbe, 0xd7, 0xc7, 0x39, 0xbe,
  0x3a, 0xa2, 0xb1, 0xbe, 0xe9, 0x06, 0xf7, 0xbd, 0xeb, 0x8c, 0x84, 0xbe,
  0x17, 0xfb, 0x9e, 0xbc, 0xdd, 0x64, 0x84, 0xbe, 0xe5, 0x56, 0x62, 0xbe,
  0x5e, 0xbe, 0x1f, 0xbe, 0x41, 0x76, 0xa9, 0xbc, 0x94, 0x69, 0x07, 0xbf,
  0x03, 0x9e, 0x3e, 0xbd, 0x40, 0x3c, 0xaf, 0xbe, 0xb1, 0x33, 0xe8, 0x3d,
  0xbd, 0x11, 0xc1, 0xbc, 0x9c, 0xca, 0x45, 0x3c, 0x46, 0x08, 0x23, 0x3e,
  0x59, 0x1c, 0x4d, 0x3e, 0x4f, 0x15, 0x25, 0xbe, 0x09, 0x44, 0x04, 0xbe,
  0x3c, 0x7b, 0x0f, 0x3e, 0x10, 0x7d, 0xfe, 0xbd, 0x7c, 0x09, 0x1f, 0x3f,
  0xf6, 0xac, 0x68, 0xbd, 0xdf, 0x2c, 0x30, 0xbe, 0xfc, 0xb9, 0x7a, 0xbd,
  0x32, 0x2c, 0x22, 0xbe, 0x76, 0x8c, 0xd1, 0x3e, 0x50, 0xdf, 0x56, 0xbe,
  0x74, 0xda, 0x0a, 0xbe, 0x55, 0xdb, 0x70, 0x3e, 0xbc, 0x25, 0x9d, 0x3a,
  0x4b, 0x2c, 0x71, 0x3d, 0x18, 0x54, 0xa6, 0xbc, 0xbd, 0x25, 0x0e, 0xbe,
  0x71, 0x94, 0xc6, 0x3e, 0xd4, 0x57, 0x4d, 0xbe, 0x6c, 0x18, 0xf1, 0xbd,
  0xd8, 0xf8, 0x1d, 0xbd, 0xe3, 0xfe, 0xbb, 0x3c, 0x37, 0x4b, 0x3c, 0xbe,
  0xbe, 0xcc, 0xff, 0xbd, 0x63, 0xde, 0x11, 0xbe, 0x7f, 0x25, 0x8c, 0x3e,
  0x66, 0x0c, 0xa1, 0x3d, 0xae, 0x9e, 0x23, 0xbe, 0x36, 0xff, 0x38, 0xbd,
  0xbb, 0x51, 0x0a, 0xbe, 0xf6, 0x16, 0x94, 0xbc, 0x75, 0x0b, 0x5d, 0x3e,
  0x5a, 0x8a, 0x68, 0x3e, 0xe6, 0x97, 0x03, 0xbe, 0x6d, 0xac, 0xa6, 0xbe,
  0xad, 0x7c, 0x0a, 0xbe, 0xfd, 0x29, 0x00, 0xbd, 0x21, 0x7f, 0xdd, 0xbd,
  0x05, 0xc3, 0x6d, 0x3e, 0x79, 0xac, 0xa8, 0x3e, 0xe8, 0xee, 0xdc, 0xbd,
  0x8b, 0x23, 0x86, 0xbb, 0xa9, 0x57, 0x38, 0xbe, 0xf8, 0x52, 0x41, 0x3d,
  0x61, 0xab, 0x0f, 0xbe, 0x21, 0x50, 0x9d, 0xbc, 0xe1, 0x95, 0x55, 0xbd,
  0x44, 0x60, 0xc0, 0xbd, 0xbd, 0x03, 0x05, 0xbe, 0x7c, 0xd1, 0xca, 0xbc,
  0x5a, 0x30, 0x82, 0xbe, 0x50, 0xce, 0x20, 0x3d, 0xfe, 0x70, 0x97, 0xbd,
  0xd4, 0x54, 0x56, 0x3d, 0x3b, 0x11, 0x0d, 0x3e, 0x89, 0x62, 0xac, 0x3d,
  0x7b, 0xce, 0x5a, 0x3d, 0xfe, 0x3d, 0x1e, 0x3d, 0x2e, 0x19, 0xdb, 0xbd,
  0x89, 0x3b, 0x17, 0xbe, 0x9f, 0xd2, 0x25, 0xbe, 0xe4, 0xb3, 0x3f, 0x3b,
  0x25, 0xa2, 0x97, 0xbe, 0x9e, 0x27, 0x0a, 0xbe, 0x51, 0x69, 0x65, 0xbe,
  0xbc, 0xa0, 0x8c, 0xbe, 0x6d, 0x1d, 0x5b, 0xbe, 0x12, 0x9f, 0xc4, 0xbc,
  0xe1, 0xaf, 0x0c, 0xbf, 0xdb, 0xa8, 0x0b, 0xbe, 0xa7, 0xd3, 0x13, 0xbd,
  0xe5, 0xe0, 0xdb, 0xbd, 0xd7, 0xda, 0xb8, 0xbd, 0x46, 0xca, 0x37, 0x3c,
  0x59, 0x16, 0x07, 0xbe, 0x83, 0x8f, 0x02, 0x3e, 0x9d, 0x0d, 0x04, 0x3e,
  0x48, 0x28, 0x07, 0xbd, 0x8e, 0x7b, 0x88, 0x3d, 0x70, 0x82, 0x44, 0x3d,
  0xfa, 0x89, 0x1a, 0xbd, 0xd3, 0xad, 0x5f, 0xbd, 0x62, 0x78, 0x60, 0xbe,
  0x91, 0x71, 0x27, 0xbe, 0xe2, 0xfd, 0xe9, 0xbd, 0x85, 0xd7, 0x4d, 0xbd,
  0x00, 0x0c, 0xaa, 0x3e, 0x4c, 0xcd, 0x11, 0x3e, 0x3d, 0xd7, 0x80, 0x3e,
  0x2c, 0xd4, 0xb2, 0x3c, 0x99, 0x0a, 0x01, 0xbe, 0x89, 0xc1, 0xd6, 0xbd,
  0xaf, 0xc8, 0xa2, 0x3c, 0xe2, 0xdd, 0xff, 0xff, 0x10, 0x00, 0x00, 0x00,
  0x0a, 0x00, 0x00, 0x00, 0x1c, 0x00, 0x00, 0x00, 0x38, 0x00, 0x00, 0x00,
  0x04, 0x00, 0x00, 0x00, 0x10, 0x00, 0x00, 0x00, 0x04, 0x00, 0x00, 0x00,
  0x01, 0x00, 0x00, 0x00, 0x08, 0x00, 0x00, 0x00, 0x1a, 0x00, 0x00, 0x00,
  0x73, 0x65, 0x71, 0x75, 0x65, 0x6e, 0x74, 0x69, 0x61, 0x6c, 0x2f, 0x63,
  0x6f, 0x6e, 0x76, 0x32, 0x64, 0x5f, 0x31, 0x2f, 0x43, 0x6f, 0x6e, 0x76,
  0x32, 0x44, 0x00, 0x00, 0x58, 0xdd, 0xff, 0xff, 0x62, 0xde, 0xff, 0xff,
  0x04, 0x00, 0x00, 0x00, 0x80, 0x01, 0x00, 0x00, 0xe8, 0xe3, 0x86, 0x3e,
  0x71, 0xbf, 0x7d, 0xbe, 0x9c, 0x89, 0x24, 0xbd, 0x06, 0x28, 0xb2, 0x3e,
  0x8f, 0x2e, 0xa0, 0x3d, 0x2f, 0xde, 0xa2, 0xbd, 0xa1, 0x86, 0x66, 0x3e,
  0x14, 0x0a, 0xff, 0xbd, 0x6d, 0x90, 0x67, 0x3d, 0xd3, 0x65, 0xc9, 0x3e,
  0x3d, 0x5b, 0x8a, 0x3d, 0x6b, 0xdf, 0x2f, 0xbd, 0x18, 0xe5, 0xf1, 0x3c,
  0x62, 0xd0, 0xec, 0xbd, 0x1d, 0x05, 0x0c, 0xbc, 0x26, 0x1f, 0x04, 0xbc,
  0x6d, 0x71, 0xf5, 0xbd, 0xa0, 0xb6, 0xb8, 0xbb, 0xbf, 0x25, 0x7e, 0xbd,
  0x6c, 0xd9, 0xf8, 0xbd, 0xc8, 0xc2, 0xcb, 0x3c, 0xda, 0xdf, 0x0f, 0xbe,
  0xaf, 0x64, 0x60, 0x3d, 0x85, 0x88, 0x9f, 0xbb, 0xd1, 0x48, 0x60, 0xbb,
  0x5a, 0xc0, 0xc6, 0xbd, 0xb0, 0x39, 0x89, 0x3d, 0xf4, 0x02, 0xc9, 0xbc,
  0x70, 0x13, 0xd3, 0xbd, 0xa8, 0x4e, 0x20, 0x3d, 0x36, 0x89, 0x28, 0xbd,
  0xa1, 0xd2, 0xd3, 0xbd, 0x7b, 0xc0, 0x05, 0x3d, 0x07, 0x6c, 0xa4, 0xbd,
  0x41, 0xb5, 0x88, 0xbc, 0x1b, 0x77, 0x37, 0xbb, 0x16, 0x86, 0x89, 0xbd,
  0xc6, 0xe3, 0xe3, 0xbe, 0xa9, 0xcb, 0x5f, 0xbe, 0xde, 0x91, 0x2b, 0x3e,
  0x15, 0x96, 0xa7, 0x3e, 0x29, 0x48, 0x98, 0x3c, 0x4b, 0xd6, 0x7c, 0xbe,
  0x0c, 0xf5, 0xd3, 0xbe, 0x04, 0x23, 0x56, 0xbd, 0x45, 0xa1, 0x52, 0x3e,
  0xac, 0x52, 0x69, 0x3e, 0x97, 0x88, 0xb8, 0x3d, 0xff, 0xac, 0x25, 0xbe,
  0x83, 0xf3, 0x06, 0x3f, 0xa7, 0xc7, 0x0d, 0x3c, 0x35, 0x64, 0x9d, 0x3d,
  0xab, 0xc9, 0xfd, 0x3c, 0xc2, 0xab, 0xd9, 0xbd, 0xa6, 0x2d, 0x0d, 0x3d,
  0x8c, 0x57, 0xdb, 0xbe, 0xd0, 0xbd, 0x7a, 0x3d, 0x66, 0xeb, 0xbc, 0x3d,
  0xd9, 0x21, 0x0f, 0xbe, 0x6a, 0x42, 0xed, 0x3c, 0x38, 0xfa, 0xbe, 0x3c,
  0x21, 0x15, 0xab, 0xbd, 0xf9, 0xb5, 0x47, 0xbd, 0xb2, 0x75, 0x21, 0x3f,
  0x18, 0xc1, 0x2e, 0x3c, 0x86, 0x51, 0x1e, 0x3c, 0xf2, 0x61, 0xa7, 0xbd,
  0x87, 0x28, 0x92, 0x3e, 0xe2, 0x56, 0xe0, 0x3b, 0xff, 0x58, 0x8d, 0xbd,
  0x58, 0xc2, 0x03, 0xbe, 0x98, 0x04, 0xce, 0x39, 0x59, 0x45, 0xa7, 0x3e,
  0xb7, 0xb0, 0x80, 0x3e, 0xd5, 0xa6, 0x29, 0x3d, 0x49, 0xbf, 0x5c, 0x3c,
  0x24, 0x62, 0x1e, 0xbe, 0x3e, 0x3f, 0x83, 0xbc, 0x40, 0xe3, 0xf4, 0x3d,
  0x33, 0xc5, 0x13, 0x3e, 0x0f, 0xe6, 0xcb, 0x3d, 0x6a, 0xc9, 0xba, 0x3b,
  0x77, 0xb4, 0xda, 0x3d, 0xcb, 0x90, 0xd3, 0xbd, 0x2a, 0x93, 0x8d, 0xbd,
  0xb3, 0x56, 0x8f, 0x3e, 0x0e, 0x91, 0xc8, 0xbe, 0x69, 0xb1, 0x0a, 0x3b,
  0x14, 0x3f, 0x02, 0x3c, 0xb3, 0xb2, 0x9c, 0xbd, 0x97, 0x1f, 0x22, 0x3d,
  0xe8, 0x21, 0x4e, 0xbe, 0xd8, 0xa2, 0x63, 0x3e, 0x2e, 0xe0, 0x36, 0x3c,
  0x51, 0x77, 0xa4, 0xbd, 0xe2, 0x53, 0x55, 0x3e, 0xba, 0xdf, 0xff, 0xff,
  0x10, 0x00, 0x00, 0x00, 0x09, 0x00, 0x00, 0x00, 0x1c, 0x00, 0x00, 0x00,
  0x38, 0x00, 0x00, 0x00, 0x04, 0x00, 0x00, 0x00, 0x08, 0x00, 0x00, 0x00,
  0x04, 0x00, 0x00, 0x00, 0x03, 0x00, 0x00, 0x00, 0x01, 0x00, 0x00, 0x00,
  0x18, 0x00, 0x00, 0x00, 0x73, 0x65, 0x71, 0x75, 0x65, 0x6e, 0x74, 0x69,
  0x61, 0x6c, 0x2f, 0x63, 0x6f, 0x6e, 0x76, 0x32, 0x64, 0x2f, 0x43, 0x6f,
  0x6e, 0x76, 0x32, 0x44, 0x00, 0x00, 0x00, 0x00, 0x30, 0xdf, 0xff, 0xff,
  0x3a, 0xe0, 0xff, 0xff, 0x04, 0x00, 0x00, 0x00, 0x00, 0x01, 0x00, 0x00,
  0x7d, 0xeb, 0x50, 0x3e, 0x01, 0xf3, 0xbe, 0xbe, 0x68, 0x3a, 0x67, 0x3e,
  0xe3, 0x87, 0x33, 0x3e, 0xd0, 0xcc, 0xa6, 0x3d, 0x8b, 0xb0, 0xe4, 0x3b,
  0x38, 0xb3, 0x96, 0xbd, 0x60, 0xf5, 0x66, 0xbc, 0x7e, 0x66, 0xe3, 0x3e,
  0x3c, 0x98, 0x50, 0xbe, 0x76, 0x20, 0xe8, 0xbe, 0xd9, 0x9c, 0xc7, 0x3d,
  0x9f, 0x63, 0x03, 0xbe, 0x4f, 0xfb, 0x13, 0xbe, 0xcb, 0x34, 0x59, 0x3e,
  0x78, 0xab, 0x29, 0xbe, 0x6a, 0x1e, 0x6c, 0x3e, 0x9c, 0x0b, 0xc8, 0xbe,
  0xdd, 0xd2, 0x90, 0xbe, 0x2b, 0x18, 0x3a, 0xbf, 0x7a, 0xaf, 0xa5, 0x3e,
  0xb2, 0xbd, 0x65, 0x3d, 0x46, 0x3a, 0x90, 0xbd, 0x0e, 0xa1, 0x92, 0xbb,
  0x9a, 0xcc, 0x06, 0xbe, 0xcb, 0xa6, 0x0c, 0x3e, 0xcf, 0x15, 0xf1, 0x3e,
  0x3a, 0x37, 0xbc, 0x3c, 0x06, 0xf1, 0x80, 0x3e, 0xa2, 0x9f, 0x9d, 0xbe,
  0xa7, 0x80, 0x93, 0x3e, 0x0a, 0x46, 0x05, 0xbe, 0x69, 0x58, 0x5c, 0x3e,
  0xfb, 0x7b, 0xb8, 0xbe, 0x11, 0x64, 0x7e, 0x3e, 0x03, 0xb3, 0x05, 0xbf,
  0x61, 0x40, 0x10, 0xbd, 0xb1, 0xed, 0x9c, 0x3d, 0xf0, 0x5c, 0x03, 0xbd,
  0xa9, 0x0c, 0x2f, 0x3d, 0x5d, 0x66, 0xc1, 0x3c, 0xa5, 0xd5, 0xd5, 0xbe,
  0xec, 0x0d, 0xc6, 0x3e, 0x40, 0x93, 0x48, 0x3d, 0x40, 0x6d, 0x92, 0x3e,
  0x0b, 0x8b, 0x88, 0xbe, 0x43, 0xc8, 0x6b, 0x3e, 0xbb, 0x37, 0x02, 0xbe,
  0x8b, 0x62, 0xcd, 0xbe, 0x73, 0x61, 0x9c, 0xbe, 0x30, 0x26, 0xa9, 0xbd,
  0x52, 0x50, 0xc0, 0xbd, 0x16, 0x4c, 0x2e, 0x3e, 0x96, 0xd0, 0x92, 0x3a,
  0x4c, 0xaf, 0x9a, 0xbd, 0x94, 0x73, 0x6a, 0xbb, 0x82, 0x17, 0x94, 0x3d,
  0xbe, 0x97, 0xcc, 0xbe, 0xb8, 0x36, 0xc7, 0x3e, 0x85, 0xc8, 0x3d, 0x3d,
  0x4d, 0x5c, 0x90, 0x3e, 0x56, 0x96, 0xce, 0xbd, 0x85, 0x29, 0x8b, 0x3e,
  0x69, 0xf6, 0x86, 0xbd, 0x12, 0xe1, 0xff, 0xff, 0x10, 0x00, 0x00, 0x00,
  0x08, 0x00, 0x00, 0x00, 0x14, 0x00, 0x00, 0x00, 0x30, 0x00, 0x00, 0x00,
  0x02, 0x00, 0x00, 0x00, 0x04, 0x00, 0x00, 0x00, 0x10, 0x00, 0x00, 0x00,
  0x19, 0x00, 0x00, 0x00, 0x73, 0x65, 0x71, 0x75, 0x65, 0x6e, 0x74, 0x69,
  0x61, 0x6c, 0x2f, 0x64, 0x65, 0x6e, 0x73, 0x65, 0x5f, 0x31, 0x2f, 0x4d,
  0x61, 0x74, 0x4d, 0x75, 0x6c, 0x00, 0x00, 0x00, 0x80, 0xe0, 0xff, 0xff,
  0x8a, 0xe1, 0xff, 0xff, 0x04, 0x00, 0x00, 0x00, 0x00, 0x1c, 0x00, 0x00,
  0x5a, 0x28, 0x66, 0xbe, 0xe8, 0x60, 0x61, 0xbe, 0xd0, 0x1a, 0xb9, 0xbd,
  0x33, 0x3c, 0x28, 0xbd, 0x18, 0x32, 0x84, 0xbc, 0x4a, 0x0d, 0x90, 0xbe,
  0x78, 0x96, 0xea, 0x3d, 0xbc, 0xde, 0xd4, 0xbd, 0x97, 0x2d, 0x8f, 0x3c,
  0xf9, 0x68, 0x1b, 0xbe, 0x37, 0x33, 0xb4, 0xbd, 0xfe, 0x17, 0x48, 0xbe,
  0x23, 0xf0, 0xb2, 0x3d, 0x87, 0xd9, 0x94, 0xbe, 0x35, 0x81, 0x3e, 0xbe,
  0xd5, 0x1d, 0x31, 0xbe, 0xd6, 0xd2, 0x0a, 0x3e, 0x33, 0xe4, 0x19, 0xbd,
  0xd2, 0x6d, 0x8f, 0x3d, 0x23, 0x98, 0x65, 0xbe, 0x1e, 0x68, 0x10, 0xbe,
  0x9b, 0x03, 0x7c, 0xbe, 0x7d, 0x3d, 0x2d, 0xbe, 0x51, 0x8c, 0x1b, 0xbe,
  0x6e, 0x4a, 0x2f, 0x3c, 0x25, 0x45, 0x1b, 0xbe, 0xe3, 0xdc, 0xa6, 0xbd,
  0xc1, 0x59, 0x21, 0xbe, 0x7e, 0xcf, 0x50, 0xbe, 0x44, 0x0c, 0x2b, 0xbe,
  0x95, 0x49, 0x4e, 0xbe, 0x8d, 0xee, 0x39, 0x3d, 0xcc, 0xae, 0xcb, 0xbd,
  0xff, 0xa5, 0x95, 0xbb, 0xcd, 0xc7, 0xa0, 0x3d, 0x5d, 0xa6, 0x1e, 0x3e,
  0x63, 0xcb, 0x3f, 0x3e, 0x8b, 0x5a, 0x29, 0xbe, 0x16, 0xd0, 0x55, 0xbe,
  0x73, 0xda, 0x34, 0x3e, 0x3c, 0xbc, 0x48, 0x3a, 0xc1, 0x03, 0xdb, 0xbd,
  0x97, 0x00, 0x2e, 0xbd, 0x04, 0x2b, 0x75, 0x3d, 0xc4, 0x3f, 0xec, 0xbd,
  0x64, 0x43, 0x3d, 0xbe, 0xa9, 0xb4, 0x49, 0xbe, 0xf9, 0x3b, 0x85, 0xbd,
  0x54, 0x6b, 0x33, 0xbe, 0x9e, 0xb9, 0xc7, 0xbd, 0xa1, 0x50, 0x57, 0x3d,
  0x4d, 0x93, 0xf7, 0x3d, 0xec, 0x76, 0x1c, 0xbe, 0x36, 0x8b, 0x16, 0xbe,
  0xf3, 0xed, 0xd2, 0xbd, 0xd5, 0xe1, 0x9b, 0x3d, 0xdd, 0x43, 0x29, 0xbd,
  0x04, 0x01, 0x14, 0xbe, 0x8a, 0x87, 0xef, 0x3b, 0xc9, 0x44, 0xb5, 0xbc,
  0x0d, 0x0a, 0x12, 0xbe, 0x70, 0x62, 0x27, 0xbe, 0xe0, 0xbc, 0xa9, 0xbe,
  0x76, 0xd5, 0x53, 0x3e, 0x89, 0x1c, 0xc0, 0x3d, 0x91, 0xec, 0x25, 0x3d,
  0x33, 0x76, 0x6e, 0xbe, 0x27, 0xa3, 0x93, 0x3d, 0x7c, 0x4f, 0xa4, 0x3d,
  0xa0, 0x64, 0x86, 0x3b, 0x49, 0xee, 0x87, 0xbd, 0xae, 0xe7, 0xba, 0xbd,
  0xc7, 0xe1, 0x17, 0xbd, 0x14, 0x9a, 0x27, 0xba, 0x07, 0x56, 0x67, 0xbe,
  0xb0, 0x00, 0xd6, 0xbb, 0x9d, 0xff, 0x1c, 0xbe, 0xa4, 0x55, 0x7e, 0xbe,
  0xbf, 0x0c, 0xd2, 0xbd, 0x57, 0x83, 0x2e, 0x3e, 0x2e, 0xb9, 0x35, 0xbe,
  0x93, 0xe5, 0x40, 0xbe, 0x6c, 0x28, 0x6f, 0x3d, 0x03, 0x39, 0xe1, 0xbd,
  0x6d, 0xe2, 0x0e, 0xbe, 0xa8, 0xf3, 0x02, 0x3e, 0x64, 0x88, 0x5f, 0xbe,
  0xd9, 0xee, 0xc8, 0x3d, 0xe7, 0x21, 0x3b, 0xbc, 0x40, 0x29, 0xc1, 0x3d,
  0x88, 0x21, 0x03, 0xbe, 0x1f, 0x97, 0x78, 0x3c, 0xd1, 0xc4, 0x6d, 0xbe,
  0xc7, 0x3e, 0xce, 0xba, 0x00, 0x21, 0x17, 0xbe, 0xca, 0xe9, 0x37, 0x3e,
  0x6c, 0x1c, 0xaf, 0xbd, 0xf8, 0x2e, 0x3e, 0xbe, 0xdd, 0x5f, 0x83, 0xbe,
  0x72, 0x26, 0xc1, 0xbd, 0x2e, 0xea, 0x36, 0xbe, 0x63, 0x02, 0xe8, 0xbd,
  0x2d, 0x3c, 0x7a, 0xbe, 0x6c, 0x76, 0xa5, 0x3d, 0x49, 0x58, 0x10, 0x3d,
  0xa4, 0xe2, 0x51, 0xbe, 0xf7, 0xb5, 0xf9, 0xbd, 0x9c, 0x74, 0x67, 0xbe,
  0x5b, 0xe7, 0x8c, 0xbe, 0xcb, 0x8c, 0x2a, 0xbe, 0x03, 0xfb, 0x34, 0xbd,
  0x1e, 0x01, 0x10, 0xbe, 0xa2, 0x08, 0x8a, 0x3e, 0x66, 0xfb, 0x65, 0xbd,
  0x61, 0xa1, 0x53, 0xbd, 0x8a, 0xd0, 0x2d, 0x3e, 0xa8, 0x6d, 0xc5, 0x3e,
  0x4c, 0x33, 0x0b, 0x3e, 0x47, 0x3b, 0x6e, 0x3e, 0x38, 0xa0, 0xa1, 0xbd,
  0x36, 0x2f, 0xfe, 0xbe, 0x6f, 0x9b, 0x52, 0x3f, 0xd8, 0xe9, 0x9f, 0xbd,
  0x20, 0xb5, 0x62, 0x3f, 0xc9, 0xf5, 0xea, 0xbb, 0x89, 0xf5, 0x04, 0xbe,
  0x53, 0x76, 0xe9, 0xbd, 0x66, 0x99, 0x7e, 0xbd, 0x31, 0x86, 0xd8, 0x3e,
  0x66, 0x20, 0x3d, 0x3c, 0xe7, 0x24, 0x01, 0xbf, 0xeb, 0xa8, 0x5f, 0x3e,
  0xf6, 0x25, 0xc6, 0x3e, 0x31, 0xc3, 0x6b, 0xbe, 0xbb, 0xaa, 0xe7, 0x3c,
  0x3e, 0xe8, 0x13, 0xbe, 0x88, 0x2f, 0xbe, 0xbd, 0xdf, 0x88, 0x47, 0x3f,
  0x6e, 0x26, 0x71, 0xbe, 0xdd, 0x8b, 0x23, 0x3f, 0x74, 0xbc, 0x78, 0x3d,
  0x6f, 0xd2, 0xec, 0xbe, 0xd8, 0x97, 0x0c, 0xbe, 0xab, 0xbb, 0x7e, 0x3e,
  0x1d, 0x36, 0x6c, 0xbb, 0xc7, 0x5e, 0x51, 0x3d, 0x55, 0xee, 0xba, 0xbe,
  0xba, 0xc6, 0x58, 0x3e, 0x7f, 0x84, 0x82, 0x3e, 0xf8, 0x64, 0x02, 0xbe,
  0xa8, 0x6d, 0x53, 0x3d, 0xdb, 0x99, 0xdf, 0x3d, 0x00, 0x13, 0x2c, 0xbe,
  0xeb, 0xe9, 0x2c, 0x3f, 0x1f, 0x0f, 0x9a, 0xbe, 0x34, 0x6c, 0xdf, 0x3e,
  0x6a, 0x66, 0x44, 0x3c, 0x13, 0x27, 0x4f, 0xbe, 0x93, 0x1f, 0x39, 0xbd,
  0x7b, 0x26, 0x6d, 0x3e, 0x2d, 0x67, 0xd5, 0xbd, 0x52, 0xfe, 0xce, 0x3b,
  0x24, 0x3b, 0x9a, 0xbe, 0x13, 0xdd, 0x73, 0x3e, 0x04, 0xd1, 0xa0, 0x3d,
  0x29, 0x9a, 0xe7, 0xbd, 0xb3, 0x71, 0x30, 0x3d, 0x90, 0x61, 0xf5, 0xbc,
  0x9c, 0xd8, 0x7d, 0xbe, 0xb5, 0xff, 0xfb, 0x3e, 0x77, 0x89, 0x5f, 0xbe,
  0xe5, 0x9d, 0x1f, 0x3f, 0x10, 0xb3, 0xe8, 0x3c, 0x63, 0xd1, 0x58, 0xbe,
  0x9a, 0x58, 0x29, 0xbc, 0x88, 0x53, 0x7a, 0x3e, 0x0d, 0x0c, 0xed, 0x3c,
  0x85, 0x79, 0x26, 0x3d, 0xdf, 0xac, 0x1a, 0xbf, 0xd9, 0x64, 0xb5, 0x3e,
  0x82, 0xc8, 0x57, 0x3c, 0x0e, 0x98, 0x4b, 0xbe, 0x39, 0xd9, 0x02, 0x3d,
  0xe4, 0xd0, 0x0e, 0xbd, 0x34, 0x44, 0xad, 0xbe, 0x1f, 0x74, 0x90, 0x3e,
  0x2b, 0x9a, 0x08, 0xbf, 0x32, 0xb5, 0xc4, 0x3e, 0x84, 0x9d, 0xd7, 0x3b,
  0x2c, 0xe9, 0xd2, 0xbe, 0xa0, 0x17, 0x92, 0x3d, 0xad, 0xb2, 0x96, 0x3e,
  0xa6, 0x2a, 0x13, 0xbe, 0x1b, 0xbb, 0x60, 0x3d, 0x02, 0xdb, 0x04, 0xbf,
  0xdc, 0xe2, 0xca, 0x3e, 0xda, 0x3b, 0x66, 0x3e, 0x8d, 0xce, 0x40, 0xbe,
  0xa3, 0xc4, 0x23, 0x3d, 0x27, 0x80, 0x6e, 0xbd, 0x2a, 0x4e, 0xfb, 0xbe,
  0x0e, 0xfd, 0x17, 0x3f, 0xcd, 0xf0, 0xee, 0xbe, 0x02, 0xcc, 0x77, 0x3d,
  0xd5, 0xc4, 0x42, 0xbd, 0x11, 0x6b, 0xd3, 0xbe, 0x36, 0x94, 0xc1, 0x3d,
  0xa5, 0xe3, 0x95, 0x3d, 0x42, 0x64, 0x77, 0xbd, 0x3d, 0xd1, 0xd4, 0xbd,
  0x78, 0x57, 0x1b, 0xbe, 0x00, 0x86, 0x30, 0x3f, 0x16, 0x1f, 0x18, 0x3e,
  0x22, 0xcf, 0x38, 0x3d, 0xbb, 0x5d, 0xe5, 0x3d, 0xfa, 0x16, 0x14, 0x3e,
  0xd5, 0x7e, 0x49, 0xbe, 0x9b, 0xf2, 0xc5, 0x3e, 0x38, 0xc3, 0x8f, 0xbd,
  0xae, 0xae, 0x18, 0x3e, 0x46, 0x83, 0xf5, 0x3d, 0x59, 0x25, 0xd5, 0xbd,
  0xde, 0x4f, 0x5a, 0xbc, 0x7a, 0xf5, 0x55, 0x3e, 0xd5, 0x04, 0x58, 0x3e,
  0x9a, 0xe9, 0x1a, 0xbe, 0x7e, 0xb9, 0x84, 0xbe, 0xb6, 0x7b, 0x8b, 0x3e,
  0xf0, 0x80, 0x03, 0xbe, 0x83, 0x33, 0x1f, 0xbe, 0x26, 0x19, 0x66, 0xbe,
  0x16, 0x27, 0x21, 0x3e, 0x91, 0xb6, 0xea, 0xbd, 0xe3, 0xec, 0x0a, 0x3e,
  0x61, 0x13, 0x66, 0xbe, 0xd7, 0x81, 0x0d, 0x3a, 0x3c, 0x7b, 0x7a, 0xbe,
  0x4d, 0x53, 0x91, 0xbe, 0x34, 0xe0, 0x76, 0xbe, 0x18, 0xe2, 0x31, 0x3c,
  0xac, 0x07, 0xf9, 0x3a, 0xc9, 0x40, 0xf0, 0xbd, 0xc6, 0x6e, 0x7d, 0xbe,
  0x2d, 0xde, 0x32, 0xbe, 0x38, 0x99, 0xcf, 0x3d, 0x11, 0x08, 0x63, 0xbe,
  0x63, 0xdc, 0x8c, 0xbe, 0x08, 0x4f, 0x0e, 0x3f, 0x97, 0x82, 0x38, 0xbe,
  0x89, 0x63, 0x0b, 0x3f, 0xa5, 0x04, 0x89, 0xbe, 0xa9, 0x74, 0xb8, 0x3d,
  0xf1, 0x78, 0xb4, 0xbe, 0x1a, 0x3d, 0x21, 0xbd, 0x70, 0x1b, 0xa4, 0xbe,
  0x02, 0x4d, 0x11, 0x3f, 0xef, 0xe9, 0xbd, 0xbc, 0xe5, 0x35, 0x2b, 0xbe,
  0xbd, 0x92, 0x82, 0xbe, 0x05, 0x15, 0xdb, 0xbd, 0x5b, 0xab, 0x9b, 0xbd,
  0xee, 0xb8, 0x13, 0x3d, 0x85, 0xcc, 0x3c, 0xbe, 0x61, 0x09, 0x33, 0x3f,
  0x3c, 0x6f, 0x59, 0xbe, 0xdc, 0xe2, 0x09, 0x3f, 0x62, 0x7e, 0x02, 0xbe,
  0xe1, 0x3b, 0xef, 0xbd, 0x69, 0xb0, 0x99, 0xbc, 0x26, 0xb5, 0x61, 0xbe,
  0xf4, 0x3c, 0xa3, 0xbe, 0x5e, 0x8d, 0x25, 0x3f, 0xb7, 0xd7, 0xeb, 0x3c,
  0xfc, 0x3e, 0xaf, 0xbd, 0x35, 0xfe, 0x46, 0xbd, 0x4c, 0x5b, 0x0f, 0x3e,
  0xac, 0x45, 0x8e, 0x3d, 0xd3, 0x40, 0x58, 0xbe, 0x0b, 0x3d, 0x81, 0xbe,
  0x75, 0x90, 0x07, 0x3f, 0x47, 0x9f, 0x99, 0xbd, 0x15, 0x74, 0x30, 0x3f,
  0x52, 0x14, 0x66, 0x3d, 0x33, 0x52, 0x4e, 0x3e, 0x2c, 0x09, 0xa7, 0xbd,
  0xf1, 0xf0, 0x49, 0xbe, 0x57, 0x8e, 0x1f, 0xbe, 0xea, 0x3e, 0x91, 0x3e,
  0xb1, 0x22, 0xad, 0x3c, 0xb8, 0xa6, 0xce, 0xbd, 0x7f, 0x43, 0xe5, 0x3c,
  0xb9, 0xbd, 0x1a, 0x3e, 0xa8, 0x1a, 0x06, 0x3e, 0x31, 0xb7, 0xa6, 0x3c,
  0xc3, 0xae, 0x29, 0xbe, 0x78, 0x3e, 0x29, 0x3f, 0x55, 0xc4, 0xab, 0xbe,
  0x42, 0xfb, 0x6c, 0x3f, 0x27, 0xf2, 0x70, 0xbe, 0x22, 0x46, 0x13, 0x3e,
  0x80, 0x7d, 0x12, 0xbe, 0x36, 0xaf, 0xa2, 0xbe, 0xee, 0x41, 0x97, 0xbd,
  0x61, 0x53, 0x41, 0x3f, 0xf2, 0x5c, 0xa2, 0xbe, 0xe5, 0xfd, 0x20, 0xbe,
  0x0f, 0xf0, 0x84, 0xbe, 0x4d, 0xbc, 0xe1, 0x3e, 0x51, 0x2c, 0xc2, 0xbd,
  0x98, 0xf8, 0x57, 0xbe, 0x6b, 0xbc, 0x48, 0xbe, 0x2b, 0xc3, 0x16, 0x3f,
  0xf5, 0xdf, 0x0e, 0xbd, 0x72, 0x43, 0x3c, 0x3f, 0xd9, 0x25, 0x8a, 0xbe,
  0x67, 0xdd, 0x6d, 0xbe, 0xae, 0x13, 0xac, 0xbe, 0x08, 0x17, 0x2d, 0xbe,
  0x6d, 0xdb, 0xad, 0xbe, 0x6c, 0xc9, 0x31, 0x3f, 0xca, 0xbe, 0xd2, 0x3d,
  0x26, 0xa4, 0x74, 0xbe, 0x85, 0xe3, 0x4f, 0xbe, 0xc9, 0x34, 0xdb, 0x3d,
  0x50, 0x31, 0xb5, 0x3d, 0x40, 0x96, 0x77, 0x3c, 0x5a, 0x3e, 0x5b, 0xbc,
  0xa6, 0x0a, 0xea, 0x3e, 0xdb, 0x30, 0x6c, 0xbd, 0x09, 0x36, 0x1e, 0x3f,
  0x06, 0x25, 0x40, 0x3c, 0x62, 0xec, 0xb3, 0xbd, 0x65, 0x53, 0x41, 0xbe,
  0x8a, 0xc9, 0x83, 0xbe, 0x57, 0x72, 0x0f, 0xbe, 0x6c, 0x5c, 0xa6, 0x3d,
  0xed, 0x88, 0x67, 0x3b, 0x0c, 0xe6, 0x8a, 0xbd, 0xa3, 0x2c, 0x30, 0xbe,
  0x5a, 0x4d, 0x09, 0x3c, 0xdb, 0x2c, 0x4b, 0x3e, 0xae, 0x45, 0xc6, 0xbe,
  0x0f, 0xba, 0x96, 0x3d, 0x1d, 0x46, 0x69, 0xbc, 0xf2, 0x45, 0x78, 0xbe,
  0xc8, 0x0b, 0x9e, 0x3e, 0x4c, 0xe5, 0xad, 0x3d, 0xde, 0x75, 0x22, 0xbd,
  0xbf, 0x6e, 0x05, 0xbe, 0xcd, 0x60, 0xdb, 0xbe, 0xde, 0x04, 0xbe, 0xbe,
  0xd0, 0x90, 0x4b, 0xbd, 0xf4, 0x0d, 0x08, 0x3d, 0xf5, 0xa9, 0x84, 0xbd,
  0x34, 0x89, 0x14, 0xbe, 0xbd, 0x66, 0x40, 0x3e, 0xad, 0x19, 0x1a, 0xbe,
  0xa9, 0x36, 0x15, 0xbe, 0x89, 0x46, 0x35, 0xbe, 0x55, 0xb9, 0x8e, 0x3e,
  0x65, 0xb0, 0x40, 0xbd, 0x69, 0xff, 0x41, 0x3f, 0xad, 0xd4, 0x24, 0x3c,
  0x81, 0xdf, 0x5f, 0x3e, 0x7f, 0xb9, 0xb6, 0xbe, 0xfa, 0x23, 0x6c, 0xbe,
  0x5a, 0x00, 0xbc, 0xbe, 0x97, 0x46, 0x95, 0x3e, 0x66, 0xd6, 0xd0, 0xbc,
  0x97, 0xb7, 0x52, 0xbe, 0x2f, 0xda, 0xb3, 0xbe, 0xe9, 0x75, 0x43, 0x3e,
  0x3f, 0x4e, 0x02, 0x3e, 0x8d, 0x99, 0x9a, 0xbc, 0xa5, 0xc8, 0xd7, 0xbd,
  0x6e, 0xa3, 0x0e, 0x3f, 0x12, 0x26, 0xf8, 0xbd, 0x31, 0x64, 0x1a, 0x3f,
  0x31, 0x84, 0x84, 0xbd, 0xa1, 0xf9, 0xca, 0x3d, 0x21, 0x7c, 0x53, 0xbe,
  0xf4, 0xbd, 0x90, 0xbd, 0xfe, 0x07, 0x86, 0xbe, 0xd5, 0xb4, 0x92, 0x3e,
  0xe2, 0x72, 0xdc, 0xbd, 0x28, 0xf8, 0x12, 0xbe, 0x40, 0xf3, 0x1d, 0xbe,
  0x4d, 0xd4, 0x56, 0x3d, 0x0f, 0xa7, 0x04, 0x3e, 0x13, 0x1d, 0xc9, 0xbc,
  0x46, 0xf5, 0xb9, 0xbd, 0x76, 0xe1, 0x56, 0x3f, 0x87, 0xb8, 0x0d, 0xbe,
  0x60, 0xc7, 0x21, 0x3f, 0xf9, 0xa5, 0x87, 0xbe, 0x33, 0x54, 0x03, 0xbd,
  0xbe, 0x61, 0x00, 0xbe, 0xaa, 0x15, 0x47, 0xbe, 0xd8, 0xec, 0xa7, 0xbe,
  0xc2, 0x4f, 0x06, 0x3f, 0x45, 0x91, 0x82, 0x3c, 0x2e, 0x0a, 0x6c, 0xbe,
  0x53, 0xbe, 0x3b, 0xbd, 0x62, 0x8c, 0x40, 0x3e, 0x50, 0xd8, 0xd1, 0x3c,
  0xe6, 0x9f, 0x30, 0xbe, 0x97, 0x5a, 0x92, 0xbe, 0xf8, 0xe6, 0x3b, 0x3f,
  0xfb, 0x8b, 0x51, 0xbe, 0x96, 0x44, 0x06, 0x3f, 0xe8, 0xb0, 0x00, 0xbe,
  0xb4, 0x94, 0x24, 0xbd, 0x8b, 0x2f, 0x9b, 0xbe, 0x7f, 0xba, 0x25, 0xbe,
  0x32, 0xdf, 0x9b, 0xbe, 0x99, 0x89, 0x29, 0x3f, 0x2d, 0x50, 0x4a, 0xbe,
  0x33, 0xbe, 0xef, 0xbd, 0xae, 0xa5, 0x97, 0xbe, 0x34, 0x4a, 0x65, 0x3e,
  0x16, 0xdb, 0xe8, 0x3c, 0xfc, 0x2a, 0xe9, 0xbd, 0x7f, 0x93, 0x9c, 0xbd,
  0x7a, 0xa4, 0x41, 0x3f, 0x56, 0xca, 0x37, 0xbe, 0xbf, 0x1c, 0x1e, 0x3f,
  0xa4, 0x91, 0xb3, 0xbd, 0xef, 0x0e, 0x03, 0x3e, 0x1e, 0x5e, 0xef, 0xbd,
  0xa5, 0xae, 0x51, 0xbe, 0xab, 0xb7, 0x82, 0xbe, 0x30, 0x04, 0x50, 0x3f,
  0xde, 0x3c, 0x84, 0xbe, 0x11, 0x71, 0x46, 0xbe, 0x2f, 0xe5, 0xb7, 0xbe,
  0x87, 0x74, 0x36, 0x3e, 0x44, 0x66, 0xfb, 0xbd, 0xdf, 0x8c, 0x8f, 0xbe,
  0xf9, 0x1e, 0xb2, 0xbe, 0x3d, 0x48, 0xcc, 0xbd, 0xeb, 0xe5, 0xc7, 0xbd,
  0x60, 0xa7, 0x59, 0x3f, 0xf5, 0x98, 0x0d, 0xbe, 0x58, 0x5d, 0x80, 0xbe,
  0x6a, 0xc6, 0x91, 0xbe, 0x2b, 0x9c, 0xc4, 0xbe, 0xe4, 0x54, 0xa6, 0xbe,
  0x65, 0xf2, 0xf2, 0x3e, 0x4c, 0x73, 0x04, 0xbe, 0x7f, 0xec, 0x59, 0x3c,
  0xbe, 0xab, 0x59, 0xbe, 0x48, 0x55, 0x30, 0xbe, 0x08, 0xd1, 0x6a, 0xbd,
  0x1c, 0xea, 0xdf, 0xbb, 0xf6, 0x7c, 0x61, 0x3c, 0x54, 0xc2, 0x94, 0xbe,
  0x37, 0xa5, 0x81, 0xbe, 0x59, 0x1f, 0x20, 0x3e, 0x06, 0x1d, 0x6b, 0xbd,
  0x29, 0x5d, 0x74, 0x3d, 0x23, 0x0e, 0x5f, 0xbe, 0x1f, 0x50, 0xb8, 0xbd,
  0x22, 0xc0, 0xe2, 0x3d, 0x81, 0x1d, 0xc1, 0x3d, 0x00, 0x90, 0x8b, 0xbb,
  0x72, 0x10, 0xbd, 0xbd, 0xa6, 0xea, 0x1f, 0x3e, 0x28, 0x2d, 0x4a, 0xbe,
  0xb5, 0xf4, 0x2c, 0x3d, 0x2c, 0xfc, 0x63, 0xbd, 0xd7, 0x75, 0x1e, 0xbe,
  0x1b, 0xfa, 0x3b, 0x3e, 0x9f, 0xfa, 0x6c, 0xbe, 0x1b, 0x1e, 0x19, 0xbe,
  0x9a, 0x9c, 0x37, 0xbd, 0x72, 0xba, 0x38, 0xbe, 0x3c, 0xec, 0xf8, 0xbd,
  0x4a, 0x17, 0x16, 0xbe, 0x78, 0xe0, 0x9d, 0xbe, 0x1c, 0x98, 0xfa, 0x3d,
  0x73, 0xf3, 0xc2, 0xbd, 0x82, 0x5d, 0xad, 0xbb, 0x49, 0xc2, 0x39, 0x3d,
  0x12, 0xb1, 0xeb, 0xbc, 0x7a, 0x9a, 0x6e, 0xbd, 0xc6, 0x03, 0xb9, 0xbc,
  0x78, 0x3e, 0x38, 0xbe, 0x5c, 0xd4, 0x97, 0x3d, 0xa7, 0xfb, 0x4d, 0x3d,
  0xd4, 0xc2, 0xe7, 0xbd, 0x7d, 0x19, 0xf5, 0xba, 0xbd, 0xac, 0x4f, 0xbd,
  0x88, 0x27, 0xe2, 0x3d, 0x7f, 0x32, 0x5e, 0xbd, 0x20, 0x9d, 0x70, 0xbe,
  0x26, 0x07, 0xc3, 0xbd, 0x1b, 0x46, 0x91, 0x3c, 0xcf, 0xa5, 0xbb, 0xbe,
  0xe3, 0xd2, 0xbc, 0x3d, 0x2a, 0x71, 0xbc, 0x3d, 0x19, 0xd1, 0xef, 0xbc,
  0x8c, 0x29, 0x74, 0xbe, 0x2d, 0xa0, 0x3b, 0xbe, 0x63, 0xee, 0x3d, 0x3d,
  0x80, 0xee, 0xd6, 0xbd, 0x25, 0xe0, 0x31, 0xbe, 0xb6, 0x52, 0xad, 0xbd,
  0x8b, 0x2d, 0xda, 0x3d, 0x48, 0xb6, 0x71, 0xbe, 0x76, 0xf1, 0x4f, 0xbe,
  0x66, 0x1b, 0x5b, 0xbe, 0x70, 0x81, 0x9d, 0xbd, 0x8d, 0x56, 0xac, 0x3d,
  0x6b, 0x58, 0xf6, 0xbd, 0xef, 0xbd, 0x85, 0xbc, 0x10, 0x6e, 0x8a, 0x3d,
  0xf7, 0x53, 0x53, 0x3e, 0x4c, 0x69, 0x87, 0x3d, 0xf0, 0x0c, 0xa1, 0xbe,
  0x6c, 0x66, 0x48, 0xbe, 0x29, 0xcc, 0xf5, 0xbd, 0x70, 0xfa, 0xcd, 0x3c,
  0x33, 0xe7, 0x8b, 0x3c, 0x9f, 0x7e, 0xa2, 0x3c, 0x95, 0x9b, 0x6d, 0x3c,
  0x84, 0x31, 0x46, 0xbe, 0x58, 0x36, 0x23, 0xbe, 0x0a, 0xd2, 0xfe, 0xbd,
  0xdb, 0xcb, 0x71, 0xbe, 0x6a, 0xae, 0x8c, 0xbe, 0x59, 0x5b, 0x2d, 0xbd,
  0xfa, 0xfe, 0xc8, 0x3c, 0xe7, 0x0e, 0x39, 0x3e, 0x70, 0xef, 0xb1, 0x3c,
  0x16, 0x0f, 0x95, 0xbe, 0x47, 0x9a, 0x1f, 0xbd, 0xb1, 0x0d, 0xae, 0x3d,
  0xf3, 0xca, 0xdc, 0xbb, 0x91, 0x7c, 0x4f, 0xbe, 0x48, 0xec, 0x90, 0xbc,
  0x04, 0x51, 0xbe, 0xbd, 0x77, 0x0c, 0x28, 0xbe, 0xf3, 0xd0, 0x89, 0xbe,
  0xef, 0xd0, 0x99, 0x3c, 0x03, 0xda, 0x91, 0xbd, 0x24, 0x8d, 0x83, 0xbe,
  0x9f, 0x4c, 0x84, 0xbe, 0x7b, 0xe9, 0xd6, 0xbc, 0x48, 0x52, 0xd0, 0x3c,
  0x4f, 0xf3, 0x68, 0x3d, 0x89, 0xc2, 0x2e, 0xbe, 0xc9, 0x2d, 0xb5, 0xbd,
  0x97, 0x59, 0xfb, 0xbd, 0x05, 0x8f, 0x26, 0xbe, 0x21, 0x2e, 0x65, 0xbe,
  0xfe, 0x2b, 0x03, 0xbe, 0x9d, 0x1c, 0x87, 0xbe, 0x14, 0x1e, 0x58, 0xbe,
  0xf2, 0x28, 0x0d, 0x3d, 0x8e, 0x4c, 0x08, 0x3c, 0xad, 0x21, 0x36, 0xbe,
  0x94, 0xa0, 0x02, 0xbd, 0xc9, 0x8c, 0xb9, 0xbe, 0x66, 0x4e, 0x9e, 0x3d,
  0xa4, 0xbf, 0x79, 0x3e, 0x89, 0x95, 0xfd, 0x3c, 0x01, 0xb3, 0xe0, 0xbe,
  0x68, 0xba, 0x9e, 0x3d, 0xc2, 0x8b, 0x2a, 0xbc, 0x27, 0x2f, 0x6e, 0x3c,
  0x72, 0x71, 0xe9, 0x3e, 0x0c, 0x86, 0x57, 0xbe, 0x9e, 0x38, 0x1f, 0xbe,
  0x39, 0xd2, 0x28, 0xbc, 0x99, 0x47, 0xc9, 0xbc, 0xdf, 0x72, 0x11, 0x3e,
  0xb7, 0x7f, 0x20, 0xbe, 0x6e, 0xb9, 0xf4, 0xbc, 0x4b, 0xf7, 0x86, 0x3c,
  0x5d, 0xb1, 0xe7, 0x37, 0xa1, 0x98, 0x9d, 0xbd, 0xf9, 0x2f, 0x72, 0x3e,
  0xd5, 0x91, 0x6c, 0xbd, 0x12, 0x7c, 0x55, 0x3e, 0x68, 0x72, 0x63, 0xbd,
  0x7c, 0x0e, 0xe8, 0x3d, 0x43, 0xeb, 0xed, 0x3e, 0x98, 0xdb, 0xc0, 0x3d,
  0x0b, 0x33, 0xa6, 0x3e, 0x9a, 0x27, 0x8d, 0xbd, 0x3b, 0xeb, 0x4c, 0xbe,
  0xfa, 0xd6, 0x59, 0x3e, 0xe6, 0xd8, 0xb1, 0xbe, 0x51, 0x61, 0x95, 0x3d,
  0xb5, 0x6d, 0x76, 0x3d, 0xb8, 0x3c, 0x29, 0x3d, 0xb6, 0xbf, 0x75, 0x3e,
  0xef, 0x9c, 0x6e, 0x3d, 0xbe, 0xce, 0x2e, 0xbe, 0xd0, 0x50, 0xa7, 0x3d,
  0x35, 0x60, 0x77, 0x3d, 0x19, 0xf4, 0x53, 0x3e, 0xa5, 0xf7, 0x8e, 0x3e,
  0xa8, 0x8e, 0x29, 0xbd, 0x6a, 0xec, 0x41, 0x3d, 0x34, 0xc2, 0x2d, 0xbe,
  0x8f, 0x5e, 0xe7, 0xbd, 0xf4, 0x1f, 0xb8, 0x3e, 0xf0, 0xe4, 0xcd, 0xbe,
  0x5a, 0xb3, 0x04, 0x3b, 0x83, 0xa1, 0xdf, 0xbc, 0x23, 0x0e, 0x6f, 0xbd,
  0x9e, 0xaf, 0x23, 0xbe, 0x84, 0x41, 0x2c, 0x3e, 0xb9, 0x3f, 0x42, 0xbe,
  0x44, 0xe5, 0xc9, 0x3d, 0x03, 0x01, 0xa1, 0x3d, 0xe7, 0x8e, 0x71, 0x3e,
  0x1a, 0x7f, 0x46, 0x3e, 0x0e, 0x35, 0xff, 0x3c, 0x4a, 0xb8, 0xc0, 0xbc,
  0xb9, 0x25, 0xd4, 0xbd, 0x16, 0xd1, 0xe6, 0xbd, 0x56, 0xd2, 0xda, 0x3e,
  0xe6, 0x95, 0x65, 0xbe, 0x0c, 0x6b, 0xd6, 0xbc, 0x54, 0xcd, 0x44, 0xbd,
  0xf9, 0x57, 0xca, 0xbd, 0xb9, 0x20, 0x4a, 0xba, 0x75, 0x11, 0x51, 0x3e,
  0xc5, 0x98, 0xde, 0xbd, 0x5b, 0x13, 0x1f, 0xbe, 0x3a, 0x8f, 0xb7, 0x3d,
  0xe1, 0x99, 0x8c, 0xbd, 0xea, 0x4e, 0x71, 0x3d, 0xb6, 0xa5, 0xb2, 0xbc,
  0xed, 0x99, 0x57, 0xbe, 0x35, 0x4e, 0xc9, 0xbd, 0x75, 0xf7, 0x8e, 0x3d,
  0x73, 0xe1, 0xe2, 0x3e, 0x9a, 0x46, 0x42, 0xbe, 0x29, 0x4f, 0xe7, 0x3c,
  0xf3, 0x62, 0xff, 0x3b, 0xb6, 0xbd, 0x43, 0xbe, 0xa7, 0xa1, 0x09, 0xbe,
  0xd8, 0xdc, 0x41, 0x3e, 0x8f, 0xe3, 0xcc, 0x3d, 0xf8, 0xf8, 0x79, 0x3e,
  0xe2, 0x84, 0x20, 0x3d, 0x76, 0xc3, 0xd2, 0xbd, 0xdc, 0xc5, 0x7d, 0x3e,
  0x7e, 0x81, 0x09, 0xbe, 0x94, 0x07, 0x92, 0xbd, 0xf1, 0x3d, 0x87, 0x3c,
  0x28, 0x13, 0x8b, 0x3d, 0xda, 0x89, 0x01, 0x3f, 0xf2, 0x8f, 0x40, 0xbe,
  0x91, 0xdb, 0x22, 0xbd, 0x9f, 0x9c, 0x04, 0x3d, 0x89, 0x87, 0xff, 0xbd,
  0xcd, 0x78, 0x28, 0x3e, 0x0b, 0xcb, 0x1c, 0x3e, 0x4e, 0xa2, 0x08, 0xbd,
  0xfa, 0x6b, 0x0d, 0x3d, 0xac, 0x9f, 0xc2, 0x3d, 0xcd, 0x95, 0x6a, 0xbe,
  0x41, 0x91, 0x85, 0xbd, 0x57, 0xdf, 0xec, 0x3c, 0xfa, 0x55, 0x0b, 0xbd,
  0x14, 0xad, 0x14, 0xbd, 0x9d, 0x2c, 0x99, 0xbd, 0x34, 0x9a, 0x2c, 0xbd,
  0xa6, 0x8a, 0xd4, 0xbe, 0x66, 0xa4, 0x4b, 0xbd, 0x39, 0xb6, 0x8c, 0xbe,
  0xce, 0x11, 0x47, 0x3e, 0x79, 0x16, 0x8b, 0xbc, 0x37, 0x10, 0x5e, 0xbe,
  0x19, 0xf5, 0x84, 0xbe, 0x8e, 0xca, 0x56, 0x3e, 0x7d, 0xc0, 0x14, 0xbe,
  0x66, 0x2a, 0xb1, 0x3e, 0x5c, 0x36, 0x2e, 0x3e, 0xfe, 0xd5, 0x37, 0xbe,
  0xcd, 0x0f, 0x4f, 0xbd, 0xa2, 0xca, 0xc4, 0xbd, 0x18, 0x48, 0x8f, 0x3c,
  0xa3, 0x48, 0xcb, 0xbc, 0x3a, 0x77, 0x9b, 0xbe, 0xfa, 0xac, 0x51, 0xbd,
  0xb4, 0x17, 0xf1, 0xbe, 0x60, 0x96, 0x27, 0x3e, 0x25, 0xbe, 0x4e, 0x3e,
  0xc5, 0xdc, 0xa1, 0x3d, 0x3c, 0x9d, 0x67, 0xbe, 0xfc, 0xb2, 0x59, 0x3d,
  0xc2, 0x90, 0x4f, 0x3c, 0x9b, 0x2c, 0x83, 0x3e, 0x3e, 0x86, 0xe8, 0x3e,
  0xf1, 0x36, 0xa2, 0xbe, 0x7c, 0xc9, 0x88, 0x3d, 0x8a, 0xb6, 0x9c, 0xbe,
  0xed, 0xf3, 0x40, 0xbd, 0x31, 0x1a, 0x09, 0x3f, 0x4d, 0x23, 0xc3, 0xbe,
  0xac, 0x77, 0x6b, 0xbd, 0x17, 0x83, 0x2f, 0xbe, 0x6e, 0x3b, 0x11, 0x3e,
  0x36, 0x72, 0x14, 0x3d, 0xc1, 0x2e, 0xe7, 0x3e, 0x08, 0x1c, 0x6b, 0xbe,
  0xb0, 0x99, 0xda, 0xbd, 0x08, 0xaa, 0x01, 0xbd, 0x78, 0x67, 0xbb, 0x3e,
  0xbd, 0x45, 0x72, 0x3e, 0x85, 0x7f, 0x18, 0xbd, 0xfa, 0x9d, 0x63, 0xbe,
  0x98, 0x8f, 0x6f, 0xbd, 0x52, 0x5d, 0x14, 0x3d, 0x5f, 0x57, 0xab, 0x3e,
  0x87, 0xed, 0xfc, 0xbd, 0xdf, 0x77, 0x40, 0x3d, 0xbc, 0x58, 0xc3, 0xbc,
  0xe3, 0x6f, 0x0e, 0xbe, 0xf7, 0xaf, 0xae, 0x3d, 0xba, 0x35, 0x62, 0x3e,
  0x09, 0x79, 0x3f, 0xbe, 0x33, 0x21, 0x2f, 0xbe, 0xc0, 0x48, 0x01, 0x3d,
  0xa9, 0x7e, 0xa0, 0x3e, 0xbd, 0x11, 0x76, 0x3e, 0x09, 0x14, 0x89, 0xbd,
  0xb4, 0xd7, 0x8d, 0x3c, 0xa3, 0x1f, 0x85, 0xbd, 0x29, 0xb2, 0x2f, 0xba,
  0xe8, 0xc2, 0xfe, 0x3e, 0xa1, 0x50, 0x95, 0xbd, 0x62, 0x1b, 0xce, 0x3d,
  0x07, 0x3d, 0x0d, 0x3d, 0x73, 0xce, 0x94, 0xbe, 0xf3, 0xbf, 0x0e, 0x3e,
  0x19, 0x14, 0x4f, 0x3e, 0xbb, 0x6a, 0xa8, 0x3c, 0x5e, 0x2b, 0x18, 0xbd,
  0xf8, 0x8b, 0x87, 0xbd, 0xa9, 0xb8, 0x08, 0xbd, 0xd4, 0xf9, 0x6a, 0x3e,
  0xb1, 0x5d, 0x21, 0xbe, 0xf0, 0x50, 0xe4, 0x3d, 0xc8, 0x86, 0x7b, 0xb7,
  0x5a, 0x6c, 0x49, 0xbd, 0x07, 0x82, 0x12, 0x3f, 0x90, 0x50, 0xb9, 0xbd,
  0x50, 0xd0, 0x22, 0x3d, 0x38, 0x2b, 0x03, 0x3e, 0x43, 0x78, 0xab, 0xbe,
  0x5e, 0x18, 0x3b, 0x3b, 0xa7, 0xd6, 0x01, 0x3e, 0x79, 0xda, 0x8a, 0x3c,
  0xcf, 0x12, 0xd4, 0xbc, 0x2c, 0xae, 0xcd, 0xbc, 0xd7, 0x76, 0x8f, 0xbd,
  0x17, 0x3d, 0x91, 0x3e, 0xae, 0xbd, 0x35, 0xbd, 0xe9, 0x44, 0x08, 0x3e,
  0xdd, 0x3e, 0x38, 0xbc, 0x28, 0x5c, 0x2f, 0xbd, 0xed, 0x10, 0x14, 0x3f,
  0xe0, 0xbf, 0x44, 0xbe, 0x03, 0x07, 0xd9, 0xbd, 0xb7, 0x7f, 0x32, 0x3d,
  0xfb, 0x91, 0x54, 0xbe, 0xa3, 0x9d, 0x04, 0x3d, 0x8c, 0x2b, 0xf4, 0xbd,
  0x14, 0xad, 0xf3, 0x3a, 0x4c, 0x89, 0xd8, 0x39, 0x63, 0x76, 0x72, 0xbe,
  0x20, 0x59, 0xc0, 0xbd, 0x1e, 0x61, 0x84, 0xbe, 0x2f, 0x9f, 0xf6, 0x3d,
  0xde, 0x64, 0x42, 0xbd, 0x46, 0x84, 0x3c, 0xbd, 0x6b, 0xfe, 0xe4, 0xbd,
  0x7d, 0xf8, 0x30, 0x3d, 0xc3, 0x82, 0xa1, 0xbe, 0xce, 0xe5, 0x90, 0x3d,
  0xd7, 0x0f, 0x11, 0xbf, 0xb8, 0x72, 0x4b, 0xbe, 0xfc, 0x90, 0xe7, 0x3d,
  0x25, 0xab, 0x38, 0xbe, 0xc4, 0x69, 0x05, 0xbf, 0xfd, 0x95, 0x34, 0x3e,
  0x75, 0xe2, 0xb9, 0xbd, 0x90, 0xc5, 0x3b, 0x3e, 0x22, 0xa6, 0x00, 0x3f,
  0xa7, 0xcf, 0x2e, 0x3e, 0xdf, 0xf7, 0x0c, 0xbe, 0x78, 0x86, 0x1c, 0xbe,
  0xd8, 0x1f, 0xd5, 0xbd, 0x45, 0x6c, 0x4a, 0x3e, 0xeb, 0xdb, 0x2f, 0xbe,
  0x59, 0x67, 0xe6, 0x3d, 0x7f, 0xe8, 0x05, 0xbe, 0xe1, 0xb1, 0x68, 0xbe,
  0x57, 0x36, 0x70, 0x3d, 0xbf, 0xfd, 0xd6, 0x3e, 0x98, 0x30, 0x14, 0xbe,
  0xa8, 0x8b, 0x58, 0x3e, 0x56, 0xef, 0x8d, 0x3c, 0x90, 0x51, 0x98, 0x3d,
  0xe8, 0xf5, 0x92, 0x3e, 0x44, 0x90, 0x3e, 0x3e, 0x18, 0xf3, 0xb5, 0xbd,
  0x6f, 0xf5, 0x0a, 0xbe, 0x43, 0x85, 0x37, 0xbe, 0x67, 0xf5, 0x11, 0x3f,
  0xe4, 0xb0, 0x28, 0xbe, 0x48, 0x64, 0x2e, 0x3e, 0xb4, 0xb9, 0xae, 0x3d,
  0x4e, 0x27, 0x15, 0xbe, 0x9e, 0xfd, 0x44, 0x3d, 0x0a, 0x3c, 0x3a, 0x3e,
  0x63, 0x40, 0xf1, 0xbc, 0x0d, 0x3d, 0xdc, 0xbd, 0xbb, 0x19, 0xc4, 0x3d,
  0x8d, 0x06, 0x10, 0x3e, 0xd8, 0xe6, 0x07, 0x3e, 0x1e, 0x07, 0xde, 0xbd,
  0x40, 0xf4, 0x0d, 0x3e, 0x4e, 0x3d, 0x23, 0x3c, 0xd1, 0x7a, 0x0a, 0xbe,
  0x5d, 0xbb, 0x97, 0x3e, 0x6a, 0x52, 0xdd, 0xbd, 0xbf, 0xba, 0x6c, 0x3c,
  0xf8, 0xfc, 0xa2, 0x3d, 0x3a, 0x58, 0x55, 0xbe, 0x21, 0x37, 0x6b, 0x3e,
  0x84, 0x5f, 0x26, 0x3e, 0x45, 0x7a, 0xa9, 0x3c, 0x3b, 0x11, 0xb7, 0xbb,
  0x6e, 0x69, 0xa3, 0x3d, 0xb4, 0x3a, 0x56, 0xbe, 0x41, 0x6e, 0x85, 0x3e,
  0xf5, 0x2d, 0x9a, 0x3d, 0x51, 0x0c, 0xf1, 0x3d, 0xb2, 0x1e, 0x49, 0xbd,
  0xb3, 0x7c, 0x21, 0xbe, 0x41, 0xc4, 0x0f, 0x3f, 0x6b, 0x36, 0xdf, 0xbc,
  0x36, 0xdf, 0x5a, 0xbc, 0xab, 0x0b, 0x9b, 0x3d, 0x63, 0x36, 0x82, 0x3d,
  0x22, 0xac, 0xa6, 0x3e, 0xce, 0x83, 0x2d, 0x3c, 0x47, 0xcc, 0x10, 0xbd,
  0xd2, 0x98, 0xe6, 0x3d, 0xb1, 0x6d, 0x30, 0x3d, 0x82, 0x0b, 0x63, 0xbe,
  0x81, 0xc3, 0xc5, 0x3e, 0x4d, 0xfa, 0x91, 0xbd, 0x53, 0x35, 0x4b, 0x3d,
  0x54, 0x64, 0xe6, 0xbd, 0x7a, 0x1d, 0x9a, 0xbd, 0xac, 0xac, 0x05, 0x3f,
  0x34, 0xf8, 0x8b, 0xbe, 0x10, 0xfb, 0x45, 0xbd, 0x23, 0xb2, 0x36, 0x3e,
  0xf2, 0x1e, 0x01, 0xbd, 0xce, 0xfe, 0x9e, 0x3e, 0xd2, 0xd9, 0x76, 0xbc,
  0xf8, 0x6d, 0xe9, 0xbc, 0xbc, 0x65, 0x1a, 0x3e, 0xe8, 0x7e, 0x76, 0x3b,
  0x2b, 0x34, 0x27, 0xbe, 0xa2, 0x00, 0xa1, 0x3e, 0xb0, 0x2c, 0x19, 0xbe,
  0x96, 0xac, 0xd1, 0xbc, 0xcc, 0xf6, 0x48, 0xbe, 0xd9, 0xda, 0x52, 0xbd,
  0xa6, 0xa2, 0x25, 0x3f, 0x04, 0x50, 0x7e, 0xbd, 0x67, 0x50, 0xce, 0xbd,
  0x52, 0x2b, 0x01, 0xbe, 0x14, 0x12, 0x43, 0x3e, 0x6f, 0x6e, 0x81, 0x3e,
  0x84, 0x36, 0xd2, 0x3d, 0xba, 0xf8, 0xaa, 0x3c, 0x5f, 0xbe, 0x53, 0xba,
  0x6b, 0x9b, 0x8c, 0x3e, 0x7a, 0xcd, 0x74, 0x3c, 0x44, 0x9d, 0x99, 0x3e,
  0xc3, 0x37, 0x4e, 0x3d, 0x7a, 0x93, 0x45, 0xbe, 0xb1, 0x21, 0xc6, 0xbd,
  0xc0, 0xf8, 0xb2, 0xbd, 0xc0, 0xe5, 0x65, 0x3e, 0x64, 0x0d, 0x6f, 0xbe,
  0x36, 0x62, 0xdb, 0xbd, 0x3d, 0xde, 0xc0, 0xbe, 0x6e, 0x70, 0x18, 0x3e,
  0x3b, 0xe4, 0x60, 0xbe, 0xfa, 0xfa, 0x57, 0xbe, 0x82, 0xf6, 0xb1, 0xbd,
  0x24, 0x20, 0x07, 0x3e, 0x77, 0xf9, 0x75, 0xbe, 0x09, 0xe2, 0xf6, 0x3e,
  0xb8, 0x0c, 0x00, 0xbe, 0xef, 0x2b, 0xb5, 0x3d, 0x20, 0x81, 0x14, 0xbc,
  0x3f, 0x51, 0xb7, 0xbe, 0xd6, 0x61, 0xe3, 0xbe, 0xc1, 0xc3, 0xdd, 0x3c,
  0x4d, 0xb6, 0x0a, 0xbe, 0xcd, 0xfd, 0x7b, 0xbe, 0x72, 0xe1, 0x80, 0xbe,
  0xb4, 0xf1, 0x33, 0x3e, 0x8b, 0xdb, 0x69, 0xbc, 0xc1, 0xee, 0x8f, 0x3d,
  0x03, 0x97, 0x74, 0xbe, 0x1b, 0xdc, 0x14, 0x3f, 0x33, 0x4d, 0x4b, 0xbe,
  0x06, 0x04, 0x6c, 0x3f, 0x91, 0x2a, 0x20, 0xbd, 0xe5, 0xbf, 0x9e, 0xbd,
  0x8c, 0xc9, 0x98, 0xbe, 0xcc, 0x66, 0x89, 0xbe, 0x5b, 0xc5, 0x8a, 0xbd,
  0xa3, 0x7a, 0x99, 0x3e, 0x84, 0x0d, 0x3d, 0xbc, 0x3c, 0x49, 0x3c, 0xbe,
  0xf2, 0xf4, 0x50, 0x3d, 0x04, 0x0e, 0x48, 0x3d, 0x58, 0xa8, 0x9b, 0xbd,
  0xb3, 0x08, 0x59, 0xbe, 0xc3, 0xe3, 0xb9, 0xbe, 0x48, 0x40, 0x1b, 0x3f,
  0x20, 0x61, 0xad, 0x3d, 0x03, 0x4b, 0x48, 0x3f, 0xa3, 0x8d, 0x25, 0xbe,
  0x6f, 0x76, 0xab, 0x3e, 0x0e, 0x40, 0x77, 0xbd, 0x3f, 0x83, 0x20, 0xbe,
  0x8b, 0x94, 0x8f, 0xbe, 0x85, 0xfe, 0x88, 0x3e, 0x1b, 0x48, 0xf7, 0x3d,
  0x29, 0x33, 0xc1, 0xbe, 0x42, 0x79, 0x4a, 0xbe, 0xa6, 0x11, 0xd5, 0x3d,
  0x60, 0xa4, 0x1f, 0x3e, 0x18, 0x20, 0x44, 0xbd, 0xb5, 0xf4, 0x81, 0xbe,
  0xc4, 0x49, 0x79, 0x3f, 0xc0, 0xf5, 0x9c, 0xbe, 0xc9, 0x70, 0x6a, 0x3f,
  0xc6, 0x5e, 0xad, 0x3c, 0x51, 0xb2, 0xbb, 0x3d, 0xa8, 0xe7, 0xb4, 0xbe,
  0x23, 0x5d, 0xb1, 0xbe, 0xa1, 0x2c, 0x3c, 0xbe, 0x74, 0xc7, 0xfb, 0x3e,
  0x9f, 0x6e, 0x67, 0x3d, 0x80, 0x87, 0x41, 0xbe, 0xd7, 0xb2, 0x80, 0xbe,
  0x2c, 0xcf, 0x24, 0x3e, 0x49, 0x72, 0x17, 0x3e, 0xb9, 0xe6, 0x5a, 0xbe,
  0x26, 0x8b, 0x2a, 0xbe, 0xe9, 0x75, 0x62, 0x3f, 0xc6, 0x87, 0x04, 0xbe,
  0x91, 0x18, 0x45, 0x3f, 0xba, 0x7d, 0x8b, 0xbe, 0x89, 0x72, 0xe1, 0x3d,
  0xa6, 0xe1, 0xad, 0xbd, 0x6e, 0x59, 0x56, 0xbe, 0x9a, 0xb1, 0xc3, 0xbe,
  0x61, 0x8d, 0x29, 0x3f, 0x2e, 0x2c, 0x08, 0x3c, 0xb8, 0xb6, 0x73, 0xbe,
  0xd0, 0x6d, 0x4f, 0xbd, 0x45, 0xb6, 0xe7, 0x3d, 0x49, 0x42, 0x5c, 0x3d,
  0x65, 0x9e, 0xea, 0xbd, 0x9b, 0xa2, 0x9e, 0xbe, 0x28, 0x76, 0x3e, 0x3f,
  0x59, 0x0d, 0x04, 0xbc, 0x8f, 0x68, 0x62, 0x3f, 0x26, 0x7a, 0x83, 0xbe,
  0x80, 0xcc, 0x01, 0x3e, 0xe7, 0x87, 0xa2, 0xbe, 0x6b, 0x6f, 0xa7, 0xbe,
  0x08, 0xcf, 0x04, 0xbe, 0x86, 0x8f, 0x2a, 0x3f, 0xe1, 0x0a, 0x98, 0x3e,
  0x2a, 0x64, 0x70, 0xbd, 0x91, 0xd1, 0xa2, 0xbe, 0x5a, 0x86, 0x1f, 0x3e,
  0xef, 0x64, 0x33, 0xbe, 0xc7, 0x7d, 0x9c, 0xbe, 0x9b, 0xc2, 0x6b, 0xbe,
  0x0f, 0xa9, 0xc3, 0x3e, 0x01, 0x00, 0xb0, 0x3d, 0xd5, 0xde, 0x35, 0x3f,
  0x9a, 0x5c, 0x70, 0xbe, 0x45, 0x5c, 0x10, 0x3c, 0x6a, 0x96, 0x2d, 0xbd,
  0xce, 0xf0, 0x0c, 0xbe, 0x79, 0x8e, 0x58, 0xbe, 0x73, 0x29, 0xc4, 0x3e,
  0x95, 0x55, 0x75, 0x3d, 0x56, 0xd3, 0x64, 0xbe, 0x84, 0x5c, 0xf7, 0xbd,
  0xc7, 0xdb, 0xc9, 0x3d, 0x19, 0x5f, 0xe1, 0xbd, 0xba, 0x8e, 0xfb, 0xbd,
  0x31, 0x2c, 0x6a, 0xbe, 0xd9, 0x7a, 0x15, 0x3d, 0xe7, 0xb0, 0x11, 0x3b,
  0xa8, 0x1c, 0x6a, 0xbc, 0x96, 0xf1, 0x48, 0xbe, 0xed, 0xdf, 0xdd, 0xbc,
  0x0b, 0xa2, 0x01, 0xbd, 0x50, 0xe2, 0x0e, 0xbe, 0xc8, 0x18, 0x5a, 0xbe,
  0xb6, 0x8b, 0xbb, 0x3d, 0x61, 0x94, 0xfb, 0x3c, 0x49, 0x5c, 0x89, 0x3d,
  0xa2, 0xc7, 0xf6, 0xbb, 0x37, 0x01, 0xa5, 0x3c, 0x8d, 0x12, 0x87, 0xbd,
  0x9e, 0xee, 0x24, 0xbe, 0x68, 0xd6, 0x48, 0x3d, 0x81, 0xbe, 0x34, 0xbe,
  0x0a, 0x13, 0xd9, 0xbd, 0x93, 0xa9, 0x2f, 0x3c, 0x94, 0x05, 0x37, 0xbe,
  0x7d, 0x2c, 0x91, 0xbd, 0xf6, 0x18, 0x57, 0x3d, 0xda, 0xda, 0xe0, 0xbd,
  0x54, 0xea, 0xa9, 0xbe, 0xb5, 0x46, 0xa5, 0xbb, 0xc2, 0x5b, 0xb5, 0xbd,
  0x6f, 0xd4, 0x41, 0xbe, 0xc0, 0xdf, 0x60, 0xbb, 0x4f, 0x2e, 0x07, 0x3e,
  0xd3, 0x32, 0x1c, 0xbe, 0x30, 0xa8, 0x9d, 0x3d, 0xaf, 0x2c, 0x02, 0xbe,
  0xef, 0xab, 0x2c, 0xbe, 0xbc, 0x67, 0x24, 0x3d, 0xb9, 0xb7, 0xdd, 0x3d,
  0x63, 0x35, 0x19, 0x3c, 0x71, 0x09, 0x29, 0xbe, 0x87, 0x9a, 0xb9, 0xbd,
  0x2c, 0xb4, 0x87, 0xbe, 0x1d, 0xe7, 0x8f, 0xbd, 0x39, 0xe1, 0xc9, 0x3d,
  0x1d, 0xa4, 0x01, 0xbc, 0xbd, 0xa5, 0xbc, 0xbd, 0xc3, 0xee, 0x83, 0xbd,
  0xfc, 0xc1, 0xa3, 0xbd, 0x35, 0x21, 0xd2, 0xbd, 0x9c, 0xe1, 0x56, 0xbe,
  0xe4, 0xb4, 0x84, 0xbe, 0x8c, 0xfc, 0xb7, 0xbc, 0x8c, 0x8a, 0x1c, 0xbd,
  0x79, 0xae, 0x1c, 0x3d, 0x4c, 0x50, 0x9d, 0x3d, 0xa9, 0x0f, 0xd9, 0x3d,
  0xa8, 0x53, 0x33, 0xbe, 0x08, 0x31, 0x26, 0xbe, 0x2a, 0xa8, 0xc1, 0x3b,
  0xdb, 0x7a, 0x05, 0xbd, 0x42, 0x00, 0x5c, 0xbe, 0xb2, 0x45, 0x0b, 0x3b,
  0xba, 0x95, 0x83, 0xbe, 0x2c, 0xef, 0xa6, 0xbd, 0xe3, 0x4a, 0xdb, 0x3c,
  0x8b, 0xb9, 0x86, 0xbe, 0x1c, 0x40, 0x08, 0xbe, 0xf4, 0x31, 0x01, 0x3d,
  0x12, 0xe8, 0x3b, 0xbe, 0x02, 0xf4, 0x2a, 0xbe, 0x97, 0x06, 0xa0, 0xbd,
  0x86, 0x43, 0x92, 0xbd, 0x08, 0x3c, 0x1f, 0xbd, 0x57, 0x1f, 0x49, 0xbe,
  0x40, 0x98, 0x77, 0xbd, 0xb8, 0xd5, 0x16, 0x3e, 0x71, 0x02, 0x75, 0xbd,
  0xd4, 0x0f, 0x37, 0xbe, 0xe8, 0x81, 0x16, 0xbe, 0x94, 0xbe, 0x24, 0xbe,
  0x30, 0x3d, 0xf1, 0x3d, 0x71, 0x0e, 0x07, 0x3b, 0x37, 0x7c, 0x29, 0xbe,
  0xd4, 0x12, 0xcd, 0xbb, 0xec, 0xa1, 0xe1, 0x3c, 0xf7, 0x13, 0x5c, 0xbe,
  0xb3, 0x7a, 0x09, 0x3e, 0x4f, 0x63, 0x93, 0xba, 0x5e, 0x9a, 0x30, 0xbe,
  0x4d, 0x4f, 0x4c, 0xbd, 0xe4, 0xa0, 0xe3, 0xbc, 0x61, 0xed, 0xe8, 0x3d,
  0x26, 0x0e, 0xb9, 0xbd, 0x6d, 0x21, 0x23, 0xbd, 0x8c, 0xbe, 0x3d, 0xbe,
  0x16, 0xda, 0xb2, 0xbd, 0x07, 0x43, 0xd3, 0xbc, 0x81, 0x78, 0x4a, 0xbe,
  0xd4, 0x5b, 0x90, 0xbd, 0x90, 0x19, 0x31, 0x3e, 0xec, 0xa7, 0xb5, 0xbd,
  0x3f, 0x3c, 0xd7, 0xbd, 0xe4, 0xe0, 0x12, 0x3d, 0x4c, 0xba, 0x03, 0x3d,
  0xf2, 0xce, 0x24, 0xbd, 0xee, 0xfc, 0x05, 0xbe, 0x6a, 0xe9, 0x84, 0xbe,
  0x1f, 0xfb, 0x65, 0xbe, 0x1c, 0x68, 0x8d, 0xbd, 0x6e, 0x21, 0x24, 0xbf,
  0xe2, 0x85, 0xef, 0xbe, 0x0b, 0xed, 0x66, 0xbe, 0x8f, 0x84, 0xd0, 0xbd,
  0x4e, 0xa5, 0x13, 0xba, 0xab, 0xab, 0xfa, 0x3d, 0x5c, 0x13, 0x04, 0xbf,
  0xda, 0x69, 0x9a, 0xbe, 0x03, 0x65, 0xe0, 0x3c, 0xe5, 0x18, 0x76, 0xbe,
  0xd0, 0xae, 0xf8, 0xbd, 0x9f, 0xa6, 0x04, 0xbf, 0xb2, 0xc6, 0x93, 0xbf,
  0x78, 0x46, 0x28, 0xbf, 0x4b, 0x50, 0xb8, 0xbe, 0x80, 0x02, 0x11, 0x3e,
  0x46, 0x78, 0x02, 0xbf, 0x2c, 0x4d, 0x0d, 0xbe, 0x26, 0xc6, 0xd6, 0xbe,
  0xe5, 0xb0, 0x26, 0x3e, 0xc8, 0x7f, 0x2a, 0xbb, 0x9e, 0x2c, 0xaa, 0xbb,
  0xa0, 0xa7, 0xf2, 0x3d, 0x4b, 0x72, 0x09, 0x3e, 0x56, 0x93, 0x38, 0xbe,
  0x3f, 0x41, 0xc1, 0xbe, 0x56, 0x14, 0x64, 0x3d, 0x51, 0x4d, 0xfb, 0xbe,
  0x5f, 0x76, 0x58, 0xbe, 0xe9, 0xbd, 0x36, 0xbf, 0x12, 0x63, 0x95, 0xbe,
  0xe7, 0xc1, 0x2f, 0x3e, 0x3b, 0x48, 0x0d, 0xbf, 0xcd, 0xb4, 0x68, 0x3e,
  0x6e, 0xf5, 0x8f, 0xbd, 0xd8, 0xe2, 0x44, 0x3e, 0x38, 0xf8, 0x9b, 0xbd,
  0xa2, 0xa0, 0xfc, 0xbc, 0xe2, 0xc8, 0xac, 0x3d, 0x48, 0x13, 0x23, 0x3e,
  0x79, 0x98, 0xfb, 0xbb, 0x4c, 0x09, 0xce, 0xbe, 0x7a, 0x11, 0xb1, 0xbd,
  0x54, 0x6d, 0xf3, 0x3a, 0xc3, 0x3d, 0xf7, 0x3d, 0x48, 0xbe, 0x17, 0xbf,
  0x62, 0x52, 0x96, 0xbe, 0xcc, 0xc1, 0x81, 0x3d, 0x83, 0xaa, 0xc6, 0xbe,
  0x69, 0xb7, 0x21, 0x3e, 0xa6, 0xe8, 0x70, 0x3b, 0x28, 0x9e, 0xd7, 0xbb,
  0x8b, 0x35, 0xb8, 0xbc, 0xac, 0x86, 0x5c, 0x3d, 0xe1, 0x83, 0x4e, 0x3e,
  0x61, 0xea, 0x95, 0x3d, 0xec, 0x5f, 0x4f, 0xbd, 0x9b, 0x81, 0xb5, 0xbd,
  0x77, 0x6c, 0x81, 0xbe, 0x10, 0xc6, 0x92, 0xbe, 0xe2, 0xfd, 0xa9, 0x3c,
  0xc4, 0xf7, 0x7d, 0x3c, 0x20, 0x54, 0x87, 0x3d, 0x44, 0xa0, 0xec, 0xbc,
  0xc8, 0xd0, 0x39, 0xbf, 0xe3, 0x4c, 0x9b, 0x3d, 0x0d, 0xf5, 0x22, 0xbd,
  0xb8, 0x8e, 0xc1, 0xbd, 0xee, 0xf9, 0xa6, 0xbd, 0x1e, 0x7a, 0x1f, 0xbd,
  0xc3, 0x9b, 0x8a, 0x3c, 0x13, 0x60, 0xb5, 0x3d, 0xfc, 0x0e, 0x22, 0x3e,
  0xe1, 0xa6, 0xfe, 0xbc, 0x92, 0x58, 0xc5, 0xbe, 0x09, 0x8f, 0x29, 0x3e,
  0xa2, 0x0f, 0x96, 0x3c, 0x19, 0x6d, 0xea, 0x3d, 0x25, 0xd8, 0x23, 0xbe,
  0x98, 0xcc, 0x4b, 0xbd, 0x2c, 0x99, 0xb3, 0xbe, 0x2e, 0x70, 0xcb, 0x3d,
  0x75, 0x9e, 0x86, 0xbd, 0x9f, 0xf8, 0xc3, 0xbd, 0xd5, 0x45, 0x8c, 0xbd,
  0x47, 0xa8, 0x04, 0xbe, 0xc7, 0x50, 0xd9, 0xbd, 0x32, 0x2a, 0x50, 0x3d,
  0x12, 0x47, 0x5c, 0xbe, 0x32, 0xb8, 0xa1, 0xbd, 0x36, 0x9d, 0x2f, 0xbe,
  0xb2, 0x92, 0xbe, 0x3d, 0x79, 0xe9, 0x24, 0xbc, 0x37, 0x64, 0xc7, 0x3b,
  0x1b, 0xc1, 0x24, 0xbe, 0x3a, 0x32, 0xf8, 0xbe, 0x8e, 0x96, 0x18, 0xbe,
  0xd7, 0x91, 0x51, 0x3c, 0xda, 0xd5, 0x5b, 0xbd, 0x2c, 0x1e, 0xe4, 0x3b,
  0x55, 0x3c, 0x66, 0x3d, 0x9f, 0x63, 0xa3, 0xbe, 0x2a, 0x6e, 0x5e, 0xbe,
  0xeb, 0x48, 0x12, 0x3e, 0x15, 0x4c, 0x6a, 0xbe, 0x66, 0x76, 0x95, 0x3c,
  0xc5, 0xdd, 0xe5, 0xbe, 0x09, 0x68, 0x94, 0x3d, 0x15, 0x2f, 0x2d, 0x3e,
  0xca, 0xe0, 0xc2, 0x3d, 0x51, 0x32, 0x9a, 0xbd, 0x80, 0xc2, 0x76, 0xbe,
  0x11, 0xda, 0xa7, 0x3e, 0xbe, 0x7f, 0xf4, 0x3b, 0x22, 0x13, 0x0a, 0xbd,
  0xcf, 0x71, 0x99, 0x3e, 0xe6, 0x18, 0xa5, 0xbd, 0xd3, 0xc9, 0x1f, 0xbe,
  0x4d, 0x02, 0x4a, 0x3e, 0x90, 0x5c, 0x65, 0xbe, 0x41, 0x6f, 0x03, 0xbe,
  0xaf, 0x61, 0x7f, 0xbe, 0x20, 0x6d, 0xd7, 0xbd, 0xd3, 0x43, 0x8b, 0xbe,
  0xab, 0x02, 0x86, 0xbb, 0xbb, 0x97, 0xa8, 0x3e, 0x21, 0xd5, 0x9e, 0x3e,
  0xc2, 0xae, 0xd0, 0xbe, 0xd8, 0x91, 0xf6, 0x3d, 0x3c, 0xa7, 0xb1, 0xbc,
  0x86, 0xa1, 0xf1, 0x3d, 0xb7, 0x85, 0x87, 0x3e, 0xbe, 0xd5, 0xd7, 0xbd,
  0x65, 0x1d, 0x2c, 0xbe, 0x9b, 0x9a, 0x4f, 0xbe, 0xa6, 0x1b, 0x8f, 0xbe,
  0x07, 0xe3, 0xea, 0x3d, 0x8c, 0xd6, 0xf6, 0xbd, 0x5c, 0x88, 0xf3, 0x3d,
  0x5a, 0xfb, 0x6b, 0xbe, 0x10, 0x4c, 0x47, 0xbd, 0x6d, 0xfa, 0x14, 0x3e,
  0x4a, 0x4d, 0xca, 0x3b, 0xda, 0x2f, 0x55, 0x3d, 0x03, 0x13, 0x00, 0xbe,
  0x31, 0x4c, 0xec, 0xbd, 0x41, 0x7c, 0x51, 0x3d, 0x0c, 0x05, 0xf1, 0x3c,
  0xc4, 0x00, 0x01, 0xbe, 0x29, 0x2c, 0x34, 0xbe, 0x8e, 0x91, 0x3d, 0x3a,
  0x20, 0x9b, 0x68, 0xbe, 0x26, 0xb5, 0xca, 0xbc, 0xc7, 0xfc, 0x9e, 0xbd,
  0x65, 0x9d, 0x11, 0x3d, 0x40, 0x55, 0x6f, 0xbd, 0x70, 0x45, 0xcb, 0x3d,
  0xd1, 0x89, 0xf1, 0x3b, 0x4b, 0xb1, 0x70, 0xbd, 0xca, 0x24, 0x59, 0x3e,
  0x80, 0xda, 0x8a, 0xbe, 0xd6, 0x22, 0x7b, 0xbe, 0x0a, 0x53, 0xe8, 0xbe,
  0x07, 0xaf, 0xca, 0xbd, 0x16, 0xfa, 0xb9, 0xbd, 0xde, 0xd8, 0xca, 0xbd,
  0x71, 0x36, 0x0c, 0xbe, 0x7f, 0xf2, 0x92, 0xbc, 0xa5, 0x6c, 0xdb, 0xbd,
  0x86, 0x46, 0x56, 0xbe, 0x68, 0x45, 0xf8, 0xbd, 0x5c, 0xc5, 0x3e, 0xbf,
  0x74, 0x7f, 0xbe, 0x3d, 0xc6, 0x6f, 0x81, 0xbd, 0xce, 0x69, 0x9e, 0xbc,
  0xc0, 0xc5, 0x06, 0x3e, 0x8e, 0x9c, 0x18, 0xbe, 0x62, 0x3d, 0x43, 0xbe,
  0x0a, 0x31, 0x0d, 0xbf, 0xa8, 0x02, 0x88, 0x3d, 0x40, 0x26, 0x94, 0xbd,
  0x64, 0xc4, 0x2c, 0x3d, 0xb1, 0x45, 0xf8, 0x3d, 0xe8, 0x12, 0xdd, 0xbd,
  0x45, 0xe1, 0x5b, 0xbe, 0xfc, 0x7c, 0x6e, 0xbe, 0x91, 0x3b, 0xff, 0xbd,
  0x1b, 0x37, 0x38, 0xbe, 0x50, 0x11, 0x83, 0x3c, 0xbf, 0x24, 0xc3, 0xbe,
  0x7b, 0x4a, 0xd0, 0x3d, 0x26, 0xa4, 0x3c, 0x3e, 0x91, 0x74, 0x22, 0x3d,
  0xa5, 0x14, 0x9d, 0xbd, 0x93, 0xed, 0x93, 0xbe, 0x38, 0xa1, 0x10, 0x3e,
  0xa8, 0xbe, 0x4a, 0x3c, 0xf7, 0xf9, 0x2c, 0xbd, 0xdc, 0x1c, 0xb2, 0x3d,
  0x14, 0x39, 0x9d, 0xbd, 0x68, 0x48, 0x55, 0xbe, 0xee, 0x70, 0x4a, 0xbd,
  0x38, 0x42, 0x03, 0xbd, 0x7e, 0x16, 0x81, 0xbe, 0xe3, 0x03, 0x92, 0xbd,
  0x80, 0x9f, 0xa9, 0xbe, 0xfe, 0x06, 0xfb, 0xbd, 0x34, 0xf3, 0x7a, 0x3e,
  0xaf, 0x53, 0xf3, 0x3d, 0x43, 0x5c, 0x17, 0x3d, 0x24, 0xbb, 0x2b, 0xbb,
  0x82, 0x68, 0x0f, 0x3d, 0x19, 0x76, 0xc8, 0xbd, 0x2e, 0x16, 0xfb, 0x3c,
  0xf9, 0xde, 0xd7, 0xbe, 0xbd, 0xb0, 0x12, 0xbd, 0x79, 0x83, 0x9e, 0xbe,
  0x00, 0x2f, 0xde, 0xbc, 0x72, 0xd5, 0xb7, 0xbd, 0x60, 0xc4, 0xe9, 0xbc,
  0x2b, 0xa9, 0x8f, 0xbc, 0xaa, 0xbf, 0xa5, 0xbd, 0x4f, 0x7a, 0xa3, 0xbe,
  0xf8, 0x7b, 0xd8, 0xbd, 0xc8, 0x7e, 0x36, 0xbd, 0x1d, 0x58, 0x69, 0xbe,
  0x1d, 0xec, 0x41, 0x3d, 0x08, 0xfa, 0xf3, 0xbd, 0x72, 0x09, 0xbe, 0xbd,
  0x55, 0x91, 0x94, 0x3b, 0xc0, 0x5b, 0x1a, 0xbe, 0xae, 0x03, 0x2e, 0xbe,
  0x56, 0x82, 0x1d, 0xbe, 0x51, 0x4e, 0x63, 0xbe, 0x3e, 0x8c, 0x13, 0x3e,
  0xd5, 0xb8, 0x26, 0xbe, 0x6a, 0x16, 0x85, 0xbd, 0x95, 0x66, 0x36, 0xbe,
  0x44, 0xb7, 0xb1, 0xbd, 0xc9, 0xb5, 0xd5, 0x3d, 0x56, 0x26, 0xcc, 0xbd,
  0x92, 0x60, 0xc5, 0x3d, 0x4d, 0x28, 0x9a, 0xbd, 0xb4, 0x2d, 0x6f, 0x3d,
  0x9e, 0xf7, 0x97, 0xbc, 0x07, 0xc6, 0xb0, 0xbe, 0xb6, 0x8f, 0x6f, 0x3d,
  0xbf, 0x8f, 0xbe, 0x3d, 0x0e, 0x7c, 0xcb, 0x3c, 0xf0, 0xa1, 0x36, 0xbe,
  0x7a, 0x26, 0x09, 0x3c, 0xba, 0x91, 0x3d, 0xbe, 0xeb, 0x3f, 0xe0, 0xbc,
  0xf2, 0xac, 0xa6, 0xbe, 0xa4, 0xbb, 0xf0, 0xbd, 0xfc, 0x82, 0x37, 0xbe,
  0xd2, 0x95, 0x30, 0xbd, 0x75, 0x77, 0x09, 0xbd, 0x88, 0x18, 0x6f, 0xbd,
  0x94, 0xaa, 0xb9, 0xbd, 0x4f, 0xea, 0xff, 0xbd, 0xad, 0x64, 0x55, 0xbe,
  0xf3, 0xec, 0x71, 0x3d, 0xff, 0xed, 0x0f, 0x3e, 0xea, 0x1f, 0xfe, 0xbc,
  0x07, 0x5e, 0x80, 0xbd, 0x0d, 0xc2, 0x24, 0xbe, 0x9b, 0x35, 0x8c, 0xbd,
  0x49, 0xf9, 0x8f, 0xbe, 0xc2, 0x83, 0x88, 0xbe, 0x63, 0x8b, 0x6a, 0x3d,
  0x89, 0xd5, 0xd6, 0x3d, 0xb3, 0xb8, 0x07, 0xbe, 0xcb, 0xdb, 0x9d, 0xbd,
  0x52, 0x3a, 0x6b, 0x3d, 0x97, 0x2b, 0x91, 0xbd, 0x53, 0x7e, 0xa8, 0xbd,
  0xb5, 0x26, 0x43, 0xbd, 0xe1, 0x3a, 0xbc, 0x3d, 0x22, 0xf0, 0x2c, 0xbe,
  0xce, 0x89, 0xc0, 0xbd, 0x19, 0xd7, 0x71, 0xbb, 0xcc, 0x82, 0xc4, 0xbd,
  0x4b, 0xb2, 0x83, 0xbe, 0xaf, 0x31, 0x67, 0xbe, 0xb3, 0xd4, 0x8f, 0xbe,
  0x2a, 0x3a, 0x1d, 0x3e, 0x59, 0x69, 0x2a, 0xbe, 0xb1, 0x6b, 0x0d, 0xbe,
  0x97, 0xe1, 0x11, 0xbe, 0x98, 0x9b, 0xd5, 0xbd, 0x8c, 0x74, 0x30, 0xbe,
  0x0a, 0xd2, 0x66, 0xbe, 0xad, 0xee, 0x7f, 0xbe, 0xdd, 0xd9, 0x0b, 0x3e,
  0xf7, 0x16, 0x90, 0x3d, 0x54, 0x0e, 0x28, 0x3e, 0xaa, 0x1f, 0xa3, 0xbd,
  0x08, 0xd5, 0x8c, 0xbd, 0x43, 0x35, 0x43, 0xbc, 0x45, 0xf5, 0xa6, 0xbe,
  0xc8, 0xb2, 0x80, 0xbe, 0x40, 0xfb, 0x99, 0x3d, 0x55, 0xcf, 0x88, 0xbe,
  0xad, 0x81, 0x7b, 0x3d, 0x04, 0xfd, 0x4a, 0x3d, 0xc3, 0xf1, 0x7b, 0xbe,
  0x43, 0x7b, 0xda, 0x3d, 0x51, 0xa0, 0x4e, 0xbc, 0x94, 0x75, 0x6e, 0xbe,
  0x9b, 0xb8, 0x3b, 0xbe, 0x2c, 0x5d, 0xa1, 0xbd, 0xc8, 0x99, 0x42, 0xbe,
  0x7c, 0x6f, 0x07, 0xbe, 0xa9, 0x11, 0x21, 0xbe, 0x6f, 0x37, 0x16, 0xbe,
  0x5c, 0x0f, 0xc5, 0xbd, 0xdd, 0x4a, 0xa1, 0xbe, 0xa0, 0xa7, 0xfd, 0x3d,
  0xbb, 0x50, 0x4f, 0xbe, 0x83, 0xbb, 0xce, 0xbe, 0xb5, 0x61, 0x93, 0xbd,
  0x7f, 0xe3, 0xbb, 0xbd, 0xda, 0x91, 0x29, 0x3e, 0x7d, 0xdf, 0x8e, 0xbe,
  0x44, 0xa0, 0x5d, 0xbd, 0x1a, 0xe5, 0x9d, 0xbd, 0xb8, 0x6f, 0xf9, 0x3c,
  0x92, 0xdd, 0x58, 0x3d, 0xe5, 0xfb, 0x85, 0xbe, 0x71, 0x75, 0x9a, 0xbe,
  0x8b, 0x30, 0x96, 0xbc, 0xb4, 0x21, 0xd1, 0xbd, 0xa9, 0xe7, 0xa2, 0xbd,
  0x66, 0x23, 0x16, 0x3e, 0xf8, 0x6d, 0xac, 0x3d, 0xd8, 0x38, 0x3f, 0xbc,
  0x3d, 0xe9, 0x96, 0xbd, 0x44, 0x68, 0x95, 0x3c, 0x31, 0x13, 0x94, 0x3e,
  0xf0, 0x24, 0x9d, 0x3d, 0xd3, 0x0b, 0x9f, 0x3d, 0x5c, 0x4b, 0x22, 0x3d,
  0x6b, 0xa4, 0x7e, 0xbe, 0xc8, 0x2b, 0xfc, 0x3e, 0x6a, 0x0d, 0x47, 0xbe,
  0x0c, 0xc5, 0x1a, 0x3f, 0x52, 0x37, 0xab, 0x3c, 0xe8, 0x55, 0x25, 0xbd,
  0x85, 0xeb, 0xeb, 0x3b, 0x83, 0xc0, 0x77, 0x3d, 0x02, 0xe5, 0xb0, 0x3d,
  0x62, 0x2d, 0xf0, 0x3c, 0x37, 0xdc, 0x87, 0xbe, 0x79, 0x25, 0x4d, 0x3e,
  0xa2, 0xf7, 0x3e, 0x3d, 0xe9, 0xf8, 0x45, 0xbe, 0x02, 0x28, 0xac, 0x3b,
  0x7b, 0xaa, 0x58, 0x37, 0xf9, 0xf8, 0xaf, 0xbe, 0x89, 0x47, 0xe3, 0x3e,
  0x25, 0xf2, 0x0b, 0xbe, 0xca, 0x60, 0x0f, 0x3f, 0xa3, 0xca, 0x5d, 0x3c,
  0x4a, 0x6d, 0xdb, 0xbd, 0x48, 0x6e, 0x8d, 0xbc, 0x40, 0xfc, 0x00, 0xbe,
  0x57, 0xdc, 0xc7, 0x3c, 0xd0, 0x90, 0xcc, 0x3c, 0x15, 0x84, 0x86, 0xbe,
  0xea, 0x73, 0x6e, 0x3e, 0x52, 0x45, 0xc0, 0xbd, 0xc4, 0x2e, 0x18, 0xbe,
  0x4d, 0x05, 0x12, 0xbd, 0xb7, 0x3e, 0xde, 0xbd, 0x1e, 0x1d, 0x66, 0xbe,
  0xf3, 0xe7, 0x23, 0x3e, 0x9b, 0x22, 0x1d, 0xbe, 0x6c, 0x18, 0x21, 0x3f,
  0x2b, 0x62, 0x7e, 0xbd, 0x01, 0xa9, 0x8a, 0xbd, 0x6b, 0x8c, 0x49, 0x3c,
  0x54, 0xb3, 0x44, 0x3d, 0x24, 0x90, 0x10, 0xbd, 0x82, 0x3d, 0xc6, 0x3c,
  0x8f, 0x2b, 0x60, 0xbe, 0xeb, 0x0f, 0x01, 0x3f, 0x98, 0x03, 0xb0, 0x3e,
  0xab, 0x74, 0x0e, 0xbd, 0x41, 0xcb, 0x05, 0x3c, 0xb3, 0x93, 0x9c, 0x3e,
  0x48, 0xc1, 0x28, 0xbe, 0xbc, 0xf1, 0xbd, 0x3e, 0x36, 0x9b, 0xf7, 0xbe,
  0x3b, 0xc1, 0xdb, 0x3e, 0x10, 0xad, 0xb2, 0xbc, 0x3b, 0xcd, 0x6b, 0xbd,
  0x89, 0xba, 0xc7, 0x3c, 0xc5, 0x06, 0xfc, 0x3b, 0xc6, 0x4e, 0x9c, 0xbc,
  0x57, 0x60, 0xc7, 0x3c, 0x41, 0xbf, 0xa4, 0xbd, 0x7b, 0x94, 0xa5, 0x3e,
  0x1b, 0x16, 0xee, 0x3d, 0x09, 0x0b, 0x33, 0xbd, 0x00, 0x82, 0x71, 0x3c,
  0xac, 0x4a, 0xa2, 0x3e, 0xf3, 0x32, 0xb4, 0xbe, 0x68, 0x1b, 0x04, 0x3f,
  0x26, 0x83, 0x72, 0xbe, 0x47, 0xe5, 0xe7, 0x3e, 0xb0, 0xa9, 0x2f, 0xbd,
  0x1c, 0x93, 0xdf, 0xbd, 0x62, 0xb0, 0x00, 0x3c, 0xeb, 0x70, 0xa1, 0xbc,
  0xca, 0xbe, 0xd4, 0xbc, 0xc0, 0xd5, 0x26, 0x3d, 0xde, 0x8f, 0x1a, 0xbe,
  0xc8, 0x48, 0x8f, 0x3e, 0x11, 0xcb, 0x5d, 0x3e, 0x58, 0x0a, 0xbe, 0xbd,
  0x89, 0xf8, 0x86, 0x3c, 0x1d, 0x33, 0x08, 0x3e, 0xf1, 0x28, 0xd8, 0xbe,
  0x4a, 0x60, 0xea, 0x3e, 0x6c, 0x70, 0xbe, 0xbe, 0xc8, 0x92, 0xec, 0x3e,
  0x38, 0xfa, 0x70, 0xbd, 0x42, 0x36, 0x19, 0xbe, 0xb4, 0x4d, 0x97, 0x3c,
  0xf3, 0x13, 0x11, 0xbe, 0x37, 0x30, 0x14, 0xbc, 0x54, 0x5d, 0x64, 0xbc,
  0xc1, 0x8c, 0x83, 0xbd, 0x3e, 0x0a, 0x9b, 0x3e, 0xa0, 0xc6, 0x83, 0x3e,
  0xbe, 0x16, 0x04, 0xbd, 0x6c, 0x65, 0x49, 0x3d, 0x97, 0x56, 0x3e, 0x3e,
  0x66, 0xc4, 0x5c, 0xbe, 0xef, 0x33, 0xb8, 0x3e, 0x4d, 0x24, 0x09, 0x3d,
  0x08, 0x7c, 0xf9, 0x3d, 0x41, 0xd1, 0x6e, 0xb9, 0x0f, 0x37, 0xbf, 0xba,
  0x9e, 0x2f, 0x5b, 0x3c, 0xa8, 0x91, 0x27, 0x3e, 0xf3, 0x9d, 0x82, 0x3e,
  0x29, 0x80, 0x3e, 0xbf, 0xb6, 0xd4, 0x9c, 0x3e, 0xc5, 0x1b, 0x7a, 0xbe,
  0xd4, 0xba, 0xde, 0xbd, 0xf1, 0x1f, 0x25, 0xbe, 0x5a, 0xff, 0x85, 0x3d,
  0x77, 0xf1, 0x4e, 0xbf, 0x54, 0xf4, 0x0c, 0x3e, 0x6c, 0x0c, 0xfb, 0xbe,
  0x22, 0x2c, 0x09, 0xbf, 0xdd, 0xe6, 0x3b, 0xbe, 0x1a, 0x9e, 0x45, 0xbe,
  0xb4, 0x73, 0x30, 0x3d, 0x00, 0x9c, 0x7d, 0xbf, 0xef, 0x8c, 0x9c, 0xbf,
  0xd7, 0x01, 0x42, 0xbc, 0x8d, 0xac, 0x48, 0xbf, 0x3a, 0x49, 0x18, 0x3e,
  0x5d, 0x54, 0x94, 0xbe, 0x24, 0xc2, 0xe7, 0xbd, 0xdb, 0xaa, 0xda, 0x3d,
  0x85, 0x47, 0x72, 0xbd, 0x96, 0x6c, 0xf8, 0xbd, 0x19, 0xf9, 0x3e, 0x3d,
  0xe8, 0x11, 0x34, 0xbe, 0x5f, 0xcc, 0x9e, 0xbe, 0x4b, 0x9c, 0xcf, 0xbe,
  0x30, 0x66, 0xc6, 0xbe, 0xba, 0xed, 0x86, 0x3d, 0xb6, 0xcd, 0xb4, 0x3b,
  0x1f, 0xc5, 0x5d, 0xbe, 0x4e, 0x9e, 0x3f, 0xbd, 0xb5, 0x6c, 0xca, 0xbe,
  0xd6, 0xde, 0x20, 0x3e, 0xdc, 0xb4, 0xe4, 0x3d, 0x79, 0x91, 0xc2, 0x3e,
  0x6c, 0x6c, 0x14, 0x3e, 0x14, 0xd4, 0x8a, 0x3c, 0xe6, 0xe0, 0x9f, 0x3e,
  0xd6, 0xed, 0xec, 0x3c, 0x4d, 0x5d, 0x85, 0xbe, 0x43, 0x8c, 0x38, 0xbd,
  0x72, 0x8f, 0xae, 0xbe, 0x3a, 0x9a, 0x5d, 0xbd, 0xe8, 0xfd, 0x9a, 0xbc,
  0xe9, 0x47, 0x27, 0x3d, 0xe4, 0x25, 0x9e, 0xbe, 0xec, 0xd1, 0x5e, 0xbd,
  0x4e, 0x70, 0x8d, 0xbe, 0xd0, 0xfd, 0xb9, 0x3d, 0x48, 0xf8, 0x26, 0x3e,
  0xfe, 0x34, 0x23, 0x3e, 0x58, 0xb7, 0xfd, 0x3d, 0x68, 0xfe, 0x7c, 0x3c,
  0xca, 0xf0, 0x71, 0x3e, 0xe5, 0xe3, 0x6d, 0x3d, 0xc7, 0x4c, 0xc4, 0x3d,
  0x0b, 0xf7, 0xb9, 0xbd, 0xaf, 0xb2, 0xe4, 0xbe, 0xa9, 0xaa, 0x1e, 0x3e,
  0xc7, 0x15, 0x95, 0x3d, 0xb1, 0x84, 0x73, 0x3d, 0x36, 0x84, 0x4d, 0xbd,
  0x68, 0xb2, 0xc5, 0xbd, 0xd2, 0x48, 0x1e, 0xbe, 0xa1, 0x1c, 0x4a, 0x3d,
  0xdf, 0x88, 0xd9, 0x3d, 0xe6, 0x59, 0x59, 0x3e, 0xa3, 0x67, 0x63, 0x3d,
  0x8c, 0x52, 0x89, 0xba, 0xef, 0x77, 0x97, 0x3b, 0xd8, 0x97, 0x85, 0x3d,
  0x52, 0x77, 0xfb, 0xbc, 0xab, 0xa6, 0xff, 0xbd, 0x7f, 0xb4, 0xa3, 0xbe,
  0xdb, 0x44, 0x59, 0x3e, 0x26, 0x57, 0x59, 0x3d, 0xe7, 0x65, 0x3a, 0x3d,
  0xbc, 0x4d, 0x8d, 0xbe, 0x7e, 0x8f, 0x77, 0xbe, 0xdc, 0x3e, 0x84, 0xbe,
  0xa7, 0x76, 0xa0, 0x3d, 0x71, 0xed, 0x87, 0x3e, 0xb2, 0xf9, 0x5b, 0x3e,
  0x24, 0x63, 0xa5, 0x3d, 0x10, 0x3a, 0xcf, 0xbc, 0x7e, 0x4c, 0xcc, 0x3d,
  0xb9, 0xd5, 0xb6, 0x3d, 0x2b, 0x76, 0x14, 0x3c, 0xbd, 0x26, 0x20, 0xbe,
  0xc0, 0x48, 0x64, 0xbd, 0x3b, 0xa0, 0xad, 0x3d, 0xa3, 0x66, 0xa4, 0x3d,
  0xbe, 0xf0, 0x96, 0x3d, 0xae, 0x05, 0x41, 0xbe, 0xa7, 0xaf, 0x0a, 0xbf,
  0x14, 0x9c, 0xf2, 0xbd, 0x03, 0xed, 0x4d, 0x3c, 0x5c, 0xd6, 0xc9, 0x3d,
  0x97, 0x75, 0xc5, 0x3d, 0xf0, 0x2c, 0x92, 0x3d, 0x1c, 0x17, 0xb0, 0xbd,
  0xf8, 0x02, 0x07, 0x3e, 0xf4, 0x86, 0x15, 0x3e, 0x37, 0x82, 0x08, 0x3e,
  0xde, 0x6a, 0x05, 0x3d, 0x98, 0xaf, 0xd6, 0xbe, 0xa0, 0xcc, 0xb6, 0x3d,
  0x00, 0xef, 0x64, 0xbb, 0x54, 0x3c, 0x4b, 0xbd, 0x77, 0x57, 0x90, 0x3d,
  0x06, 0x94, 0x61, 0x3e, 0x32, 0xd6, 0xc6, 0xbe, 0x54, 0x7e, 0x16, 0xbd,
  0x71, 0x37, 0xac, 0x3e, 0x53, 0xe9, 0x17, 0x3d, 0xb1, 0x11, 0xae, 0x3d,
  0xb4, 0x3f, 0x02, 0x3e, 0xd9, 0xa4, 0x57, 0xbe, 0x23, 0xd8, 0x9f, 0xbe,
  0xcc, 0xc7, 0xf4, 0x3e, 0x68, 0x5e, 0xe9, 0xbc, 0xd6, 0xe5, 0x39, 0x3f,
  0x01, 0xed, 0x74, 0xbd, 0x42, 0xe6, 0xbe, 0xbd, 0x12, 0xf3, 0x80, 0x3d,
  0x52, 0xa6, 0xfb, 0x3d, 0x7f, 0xfe, 0x8a, 0x3e, 0x05, 0x89, 0x48, 0xbe,
  0x3d, 0x43, 0x00, 0xbf, 0x35, 0x26, 0x9b, 0xbe, 0x4a, 0x05, 0x60, 0xbd,
  0xe3, 0x6d, 0xe7, 0xbd, 0x83, 0xd1, 0x91, 0x3d, 0xe0, 0x2b, 0x3a, 0x3e,
  0xc2, 0xbb, 0x76, 0xbd, 0x0a, 0x7c, 0x30, 0xbd, 0xb5, 0xc2, 0x23, 0xbe,
  0xd8, 0x53, 0x2c, 0x3f, 0x81, 0xd2, 0x4d, 0xbc, 0xaf, 0x40, 0xdb, 0xbd,
  0x1a, 0x27, 0xb6, 0xbc, 0x41, 0x8f, 0xf8, 0xbb, 0x5f, 0xb4, 0xa0, 0x3d,
  0x07, 0x78, 0x66, 0xbe, 0xf7, 0x9f, 0x10, 0xbe, 0x3b, 0xd3, 0xc6, 0xbe,
  0xfe, 0x7f, 0xda, 0x3d, 0xe9, 0x0b, 0x40, 0xbe, 0xb7, 0xc5, 0x4e, 0x3d,
  0xdf, 0x19, 0x14, 0xbe, 0xc5, 0x3e, 0xe0, 0xbd, 0x58, 0x2e, 0x27, 0xbd,
  0x10, 0x05, 0x0e, 0xbd, 0xcf, 0x2f, 0x4a, 0x3f, 0x1e, 0x41, 0x57, 0xbe,
  0xe8, 0xc6, 0x07, 0x3d, 0x33, 0x46, 0xfd, 0x3c, 0x9e, 0xc9, 0x2c, 0x3d,
  0xfb, 0xd9, 0x3c, 0x3d, 0x5b, 0xa4, 0x75, 0xbe, 0x28, 0xee, 0x26, 0xbe,
  0x9f, 0x2e, 0x7c, 0xbe, 0x17, 0x3a, 0xb1, 0xbd, 0xcc, 0x71, 0x25, 0xbd,
  0x28, 0x0b, 0x71, 0x3c, 0xea, 0x0d, 0x86, 0x3e, 0x22, 0xe5, 0x9c, 0xbd,
  0x6f, 0xf5, 0x9b, 0xbd, 0x37, 0x5d, 0xcc, 0x3d, 0x9e, 0x5e, 0x20, 0x3f,
  0xd1, 0x8b, 0xd5, 0xbd, 0x79, 0x85, 0x17, 0xbc, 0x43, 0xec, 0xc5, 0x3d,
  0x7c, 0xb8, 0xa6, 0x3e, 0xcb, 0x1a, 0x88, 0x3c, 0x50, 0x48, 0x8d, 0xbe,
  0xc8, 0xc4, 0x84, 0xbe, 0xf9, 0x6d, 0xf8, 0xbe, 0xde, 0xa5, 0x1b, 0x3c,
  0xb4, 0x1e, 0x9e, 0xbe, 0xf4, 0xd8, 0x1f, 0x3d, 0xa9, 0x66, 0xdc, 0xbd,
  0xf9, 0x4d, 0x54, 0xbe, 0x3f, 0x9d, 0x39, 0xbb, 0x54, 0x75, 0xad, 0xbc,
  0x62, 0xf1, 0x68, 0x3f, 0x91, 0x13, 0xed, 0xbd, 0x9f, 0x59, 0x81, 0x3c,
  0x7d, 0x9f, 0xe6, 0x3d, 0xf8, 0x66, 0xe9, 0x3e, 0xc5, 0x30, 0x83, 0xbd,
  0x7e, 0x10, 0x3f, 0xbe, 0xd6, 0x0a, 0x97, 0xbe, 0xce, 0xc1, 0x08, 0xbf,
  0x6c, 0xbe, 0xca, 0x3d, 0xba, 0xb7, 0x03, 0xbe, 0xad, 0xeb, 0x2b, 0x3d,
  0x5d, 0x6c, 0x56, 0x3d, 0x2f, 0x15, 0x8e, 0xbe, 0xdb, 0xb6, 0x34, 0x3d,
  0x45, 0xe7, 0x73, 0xbd, 0x22, 0x51, 0x23, 0x3f, 0x48, 0xb7, 0x85, 0xbe,
  0x3e, 0xab, 0x02, 0xbe, 0x83, 0x03, 0x0d, 0x3e, 0x96, 0xf9, 0x3d, 0x3e,
  0xde, 0xd3, 0xc4, 0xbc, 0xd5, 0x31, 0x85, 0xbe, 0x5a, 0x6f, 0x5c, 0xbe,
  0x0c, 0x3e, 0x94, 0xbe, 0x50, 0xbe, 0x68, 0x3e, 0x7f, 0xf8, 0xc6, 0xbd,
  0x83, 0x16, 0xac, 0x3d, 0x84, 0x87, 0x81, 0x3e, 0x8c, 0x73, 0x1d, 0xbc,
  0x5b, 0x1c, 0x1a, 0x3e, 0xc8, 0x87, 0x75, 0x3e, 0x32, 0xd3, 0x98, 0x3e,
  0x72, 0xd0, 0xc9, 0xbe, 0x9c, 0x8b, 0x14, 0x3c, 0x03, 0xf1, 0x67, 0x3e,
  0x37, 0xa3, 0x15, 0x3d, 0x62, 0xfd, 0xff, 0xff, 0x10, 0x00, 0x00, 0x00,
  0x07, 0x00, 0x00, 0x00, 0x14, 0x00, 0x00, 0x00, 0x2c, 0x00, 0x00, 0x00,
  0x02, 0x00, 0x00, 0x00, 0x10, 0x00, 0x00, 0x00, 0x70, 0x00, 0x00, 0x00,
  0x17, 0x00, 0x00, 0x00, 0x73, 0x65, 0x71, 0x75, 0x65, 0x6e, 0x74, 0x69,
  0x61, 0x6c, 0x2f, 0x64, 0x65, 0x6e, 0x73, 0x65, 0x2f, 0x4d, 0x61, 0x74,
  0x4d, 0x75, 0x6c, 0x00, 0xcc, 0xfc, 0xff, 0xff, 0xd6, 0xfd, 0xff, 0xff,
  0x04, 0x00, 0x00, 0x00, 0x08, 0x00, 0x00, 0x00, 0xff, 0xff, 0xff, 0xff,
  0x70, 0x00, 0x00, 0x00, 0x00, 0x00, 0x0e, 0x00, 0x18, 0x00, 0x08, 0x00,
  0x07, 0x00, 0x0c, 0x00, 0x10, 0x00, 0x14, 0x00, 0x0e, 0x00, 0x00, 0x00,
  0x00, 0x00, 0x00, 0x02, 0x10, 0x00, 0x00, 0x00, 0x06, 0x00, 0x00, 0x00,
  0x10, 0x00, 0x00, 0x00, 0x2c, 0x00, 0x00, 0x00, 0x01, 0x00, 0x00, 0x00,
  0x02, 0x00, 0x00, 0x00, 0x18, 0x00, 0x00, 0x00, 0x73, 0x65, 0x71, 0x75,
  0x65, 0x6e, 0x74, 0x69, 0x61, 0x6c, 0x2f, 0x66, 0x6c, 0x61, 0x74, 0x74,
  0x65, 0x6e, 0x2f, 0x43, 0x6f, 0x6e, 0x73, 0x74, 0x00, 0x00, 0x00, 0x00,
  0x34, 0xfd, 0xff, 0xff, 0x3e, 0xfe, 0xff, 0xff, 0x04, 0x00, 0x00, 0x00,
  0x10, 0x00, 0x00, 0x00, 0xd1, 0x37, 0x91, 0x3d, 0xb8, 0x51, 0xee, 0xbe,
  0xce, 0x81, 0xa0, 0xbf, 0xa8, 0x21, 0x59, 0xbf, 0x26, 0xfe, 0xff, 0xff,
  0x10, 0x00, 0x00, 0x00, 0x05, 0x00, 0x00, 0x00, 0x10, 0x00, 0x00, 0x00,
  0x44, 0x00, 0x00, 0x00, 0x01, 0x00, 0x00, 0x00, 0x04, 0x00, 0x00, 0x00,
  0x32, 0x00, 0x00, 0x00, 0x73, 0x65, 0x71, 0x75, 0x65, 0x6e, 0x74, 0x69,
  0x61, 0x6c, 0x2f, 0x64, 0x65, 0x6e, 0x73, 0x65, 0x5f, 0x31, 0x2f, 0x42,
  0x69, 0x61, 0x73, 0x41, 0x64, 0x64, 0x2f, 0x52, 0x65, 0x61, 0x64, 0x56,
  0x61, 0x72, 0x69, 0x61, 0x62, 0x6c, 0x65, 0x4f, 0x70, 0x2f, 0x72, 0x65,
  0x73, 0x6f, 0x75, 0x72, 0x63, 0x65, 0x00, 0x00, 0xa8, 0xfd, 0xff, 0xff,
  0xb2, 0xfe, 0xff, 0xff, 0x04, 0x00, 0x00, 0x00, 0x40, 0x00, 0x00, 0x00,
  0xc9, 0xf4, 0x58, 0xbe, 0x2a, 0x1b, 0x59, 0x40, 0xc1, 0xa0, 0xbc, 0x3e,
  0xc1, 0x9c, 0x31, 0x3f, 0xbe, 0x44, 0x45, 0xbe, 0x47, 0xa3, 0xf5, 0xbe,
  0x22, 0x19, 0xf8, 0xbe, 0x87, 0x58, 0x87, 0x3a, 0xdc, 0x41, 0x2f, 0x3f,
  0xc1, 0xb7, 0x66, 0xbe, 0xb7, 0xae, 0x84, 0xbf, 0x83, 0x7d, 0xa6, 0xbe,
  0x21, 0x31, 0xad, 0xbe, 0x97, 0x70, 0x6d, 0x40, 0x0c, 0x9a, 0xca, 0xbf,
  0x53, 0x1a, 0xfa, 0x3f, 0xca, 0xfe, 0xff, 0xff, 0x10, 0x00, 0x00, 0x00,
  0x04, 0x00, 0x00, 0x00, 0x10, 0x00, 0x00, 0x00, 0x44, 0x00, 0x00, 0x00,
  0x01, 0x00, 0x00, 0x00, 0x10, 0x00, 0x00, 0x00, 0x30, 0x00, 0x00, 0x00,
  0x73, 0x65, 0x71, 0x75, 0x65, 0x6e, 0x74, 0x69, 0x61, 0x6c, 0x2f, 0x64,
  0x65, 0x6e, 0x73, 0x65, 0x2f, 0x42, 0x69, 0x61, 0x73, 0x41, 0x64, 0x64,
  0x2f, 0x52, 0x65, 0x61, 0x64, 0x56, 0x61, 0x72, 0x69, 0x61, 0x62, 0x6c,
  0x65, 0x4f, 0x70, 0x2f, 0x72, 0x65, 0x73, 0x6f, 0x75, 0x72, 0x63, 0x65,
  0x00, 0x00, 0x00, 0x00, 0x4c, 0xfe, 0xff, 0xff, 0x56, 0xff, 0xff, 0xff,
  0x04, 0x00, 0x00, 0x00, 0x40, 0x00, 0x00, 0x00, 0xab, 0xda, 0x77, 0x3f,
  0x1a, 0x6a, 0x89, 0x3f, 0xc8, 0x52, 0x44, 0xc0, 0x22, 0x8e, 0x0c, 0x40,
  0x4c, 0x8c, 0xbf, 0xbd, 0xce, 0x3e, 0x22, 0xbd, 0x30, 0x10, 0xc1, 0x3f,
  0xf5, 0xca, 0x58, 0x3f, 0xc4, 0x0a, 0x1d, 0xc0, 0xc3, 0xfc, 0x23, 0x40,
  0x1e, 0xbd, 0xcf, 0xbf, 0x08, 0x6e, 0xa2, 0x3e, 0x56, 0x73, 0x39, 0xbb,
  0xd4, 0xcb, 0x30, 0xc0, 0xc6, 0x67, 0xec, 0x3e, 0xca, 0x20, 0x0e, 0x3f,
  0x6e, 0xff, 0xff, 0xff, 0x10, 0x00, 0x00, 0x00, 0x03, 0x00, 0x00, 0x00,
  0x10, 0x00, 0x00, 0x00, 0x48, 0x00, 0x00, 0x00, 0x01, 0x00, 0x00, 0x00,
  0x10, 0x00, 0x00, 0x00, 0x33, 0x00, 0x00, 0x00, 0x73, 0x65, 0x71, 0x75,
  0x65, 0x6e, 0x74, 0x69, 0x61, 0x6c, 0x2f, 0x63, 0x6f, 0x6e, 0x76, 0x32,
  0x64, 0x5f, 0x31, 0x2f, 0x42, 0x69, 0x61, 0x73, 0x41, 0x64, 0x64, 0x2f,
  0x52, 0x65, 0x61, 0x64, 0x56, 0x61, 0x72, 0x69, 0x61, 0x62, 0x6c, 0x65,
  0x4f, 0x70, 0x2f, 0x72, 0x65, 0x73, 0x6f, 0x75, 0x72, 0x63, 0x65, 0x00,
  0x04, 0x00, 0x06, 0x00, 0x04, 0x00, 0x00, 0x00, 0x00, 0x00, 0x06, 0x00,
  0x08, 0x00, 0x04, 0x00, 0x06, 0x00, 0x00, 0x00, 0x04, 0x00, 0x00, 0x00,
  0x20, 0x00, 0x00, 0x00, 0xf6, 0x02, 0xab, 0xbf, 0xbc, 0xb5, 0x80, 0xc0,
  0xc2, 0xc5, 0x7a, 0xc0, 0x65, 0x13, 0x07, 0xbe, 0x65, 0x66, 0x6e, 0xc0,
  0x81, 0x27, 0x11, 0xbf, 0xf2, 0xbe, 0x8a, 0xbc, 0x53, 0x13, 0x8a, 0xc0,
  0x00, 0x00, 0x0e, 0x00, 0x14, 0x00, 0x04, 0x00, 0x00, 0x00, 0x08, 0x00,
  0x0c, 0x00, 0x10, 0x00, 0x0e, 0x00, 0x00, 0x00, 0x10, 0x00, 0x00, 0x00,
  0x02, 0x00, 0x00, 0x00, 0x10, 0x00, 0x00, 0x00, 0x44, 0x00, 0x00, 0x00,
  0x01, 0x00, 0x00, 0x00, 0x08, 0x00, 0x00, 0x00, 0x31, 0x00, 0x00, 0x00,
  0x73, 0x65, 0x71, 0x75, 0x65, 0x6e, 0x74, 0x69, 0x61, 0x6c, 0x2f, 0x63,
  0x6f, 0x6e, 0x76, 0x32, 0x64, 0x2f, 0x42, 0x69, 0x61, 0x73, 0x41, 0x64,
  0x64, 0x2f, 0x52, 0x65, 0x61, 0x64, 0x56, 0x61, 0x72, 0x69, 0x61, 0x62,
  0x6c, 0x65, 0x4f, 0x70, 0x2f, 0x72, 0x65, 0x73, 0x6f, 0x75, 0x72, 0x63,
  0x65, 0x00, 0x00, 0x00, 0x90, 0xff, 0xff, 0xff, 0x14, 0x00, 0x18, 0x00,
  0x04, 0x00, 0x00, 0x00, 0x08, 0x00, 0x0c, 0x00, 0x10, 0x00, 0x00, 0x00,
  0x00, 0x00, 0x14, 0x00, 0x14, 0x00, 0x00, 0x00, 0x14, 0x00, 0x00, 0x00,
  0x01, 0x00, 0x00, 0x00, 0x20, 0x00, 0x00, 0x00, 0x44, 0x00, 0x00, 0x00,
  0x2c, 0x00, 0x00, 0x00, 0x04, 0x00, 0x00, 0x00, 0x01, 0x00, 0x00, 0x00,
  0x40, 0x00, 0x00, 0x00, 0x03, 0x00, 0x00, 0x00, 0x01, 0x00, 0x00, 0x00,
  0x0c, 0x00, 0x00, 0x00, 0x63, 0x6f, 0x6e, 0x76, 0x32, 0x64, 0x5f, 0x69,
  0x6e, 0x70, 0x75, 0x74, 0x00, 0x00, 0x00, 0x00, 0x04, 0x00, 0x00, 0x00,
  0xff, 0xff, 0xff, 0xff, 0x40, 0x00, 0x00, 0x00, 0x03, 0x00, 0x00, 0x00,
  0x01, 0x00, 0x00, 0x00, 0xfc, 0xff, 0xff, 0xff, 0x04, 0x00, 0x04, 0x00,
  0x04, 0x00, 0x00, 0x00
};

unsigned int model_tflite_len = 13120;// Fill the int in `src/model.cc` here